#version: 0.2
Ġ Ġ
ĠĠ ĠĠ
č Ċ
t h
Ġ th
ĠĠĠĠ ĠĠĠĠ
Ġ a
i n
Ġ s
e r
n d
Ġ w
Ġth e
Ġ h
Ġ o
r e
o u
Ġ m
i s
Ġ f
Ġ b
Ġ t
e s
o n
o r
a t
l l
e n
Ġ d
e a
ĠĠĠĠĠĠĠĠ ĠĠĠĠĠĠĠĠ
Ġ c
Ġa nd
Ġ l
Ġo f
Ġ p
Ġ n
s t
in g
Ġt o
- -
a n
Ġ in
T h
o w
e d
o m
i t
' d
g h
a r
i th
Ġ g
i r
c e
l e
Ġw h
s e
ĠĠ Ġ
Ġ I
v e
A nd
c h
o t
e t
Ġh a
r a
Ġ S
u t
gh t
e l
Ġw ith
r i
Ġ u
Ġs h
ea r
-- --
l d
er e
a m
o d
Ġs t
Ġ re
Ġ e
a l
Ġb e
i d
i m
l y
a y
u r
Ġth at
Ġh is
Ġth y
en t
a s
v er
r o
i on
a d
Ġm y
Ġo n
Ġm e
Ġn ot
Ġ y
Ġ L
W h
i ll
Ġth ou
es t
Th e
i l
a in
ou r
Ġ P
Ġf or
Ġ A
Ġ 1
i ght
Ġ H
a ll
Ġ M
Ġa s
o re
Ġ C
ĠĠĠĠĠĠĠĠĠĠĠĠĠĠĠĠ ĠĠĠĠĠĠĠĠ
Ġa ll
r om
T o
ou s
es s
c k
Ġ G
Ġo r
Ġ is
g e
e e
r u
Ġ v
c t
i f
Ġs o
Ġ B
er s
u s
Ġh er
Ġs p
Ġthe e
Ġ it
r ou
or d
---- ----
Ġs u
a st
Ġf rom
ĠĠĠĠĠĠĠĠĠĠĠĠĠĠĠĠ ĠĠĠĠ
O f
Ġ T
k e
Ġth is
e ll
on g
Ġ F
re s
n t
Ġa t
Ġc h
i e
th er
Ġb y
e m
in d
in e
an t
ou ld
Ġu n
Ġh e
o od
Ġn e
Ġn o
' s
Th at
is t
i ch
o se
Ġ O
p h
Ġ E
a nd
W ith
b le
at e
Ġthe ir
Ġl o
p t
Ġha ve
Ġh im
q u
Ġ k
Ġc om
Ġl i
Ġw as
Ġd o
n g
Ġb l
B ut
o l
Ġthe m
u l
Ġ D
Ġb ut
en ce
e nd
Ġc on
i c
t er
u m
I n
is e
u st
Ġ W
Ġf a
Ġd e
ĠG od
p p
am e
i es
ar d
Ġthe n
r ow
Ġthe y
Ġp l
or t
ea v
u n
i v
o ld
u re
Ġsh all
Ġwh at
o st
Ġ j
Ġf l
Ġn ow
Ġwh o
Ġs om
i ous
Ġ N
is h
Ġ R
Ġh ear
ea d
Ġu p
o s
Ġw ill
Ġs a
Ġwh ich
Ġa n
Ġm ore
Ġ Th
a u
Ġs e
Ġo ur
o p
o k
r ing
ou nd
O r
i gh
i le
u ll
Ġth ir
at ion
Ġa re
or n
ĠĠĠĠĠĠĠĠĠĠĠĠĠĠĠĠĠĠĠĠĠĠĠĠ ĠĠĠĠ
Ġg l
Ġst re
ĠL ord
Ġw or
Ġsh e
Ġm an
Ġu s
n ow
Ġa r
Ġm ay
it y
Ġe x
Ġy ou
ou t
i re
Ġ ra
Ġ if
Ġa l
i g
Ġa m
ea s
Ġg re
Ġ1 0
' t
i ck
-------- --------
i ve
r an
Ġs w
Ġ en
Ġ And
Ġha d
Ġ1 6
a k
a th
a re
o th
r in
Ġp ro
id e
o nd
r y
ee p
a b
f ore
i ce
Ġha th
t ed
u e
n s
Ġa b
ing s
Ġwh ere
F or
Ġs ee
Ġc l
a ke
Ġ ru
ou nt
Ġc an
Ġo ut
e ct
o y
u d
Ġ J
Ġ ear
er t
Ġe ver
Ġy et
2 0
f f
g ain
Ġ V
Ġ ri
Ġy our
a g
Ġd is
ĠĠĠĠĠĠĠĠĠĠĠĠĠĠĠĠ ĠĠĠĠĠĠĠĠĠĠĠĠĠĠĠĠ
rou gh
Ġh igh
A s
o ve
v es
Ġth ere
nd er
Ġp er
ar k
el f
p l
t s
w n
as s
u ch
Ġf o
ĠH eav
Ġsu ch
a c
a ge
Ġd id
b l
Ġ *
Ġ qu
Ġs elf
Ġw e
on s
Ġd ay
an ce
Ġg ood
Ġha nd
Ġk now
Ġ The
n ess
Ġthe se
on e
t o
a p
h e
m s
Ġ im
Ġw ould
Ġh ow
Ġh ere
Ġf ir
Ġt ru
Ġof f
c c
el d
3 0
e et
ng th
4 0
S am
f t
Ġs l
Ġm ight
ĠĠĠĠĠĠĠĠĠĠĠĠĠĠĠĠ ĠĠĠĠĠĠĠĠĠĠĠĠĠĠĠĠĠĠĠĠ
Ġwh en
ĠĠĠĠĠĠĠĠĠĠĠĠĠĠĠĠĠĠĠĠĠĠĠĠ Ġ
Ġstre ngth
Ġgre at
Ġ ver
Ġo wn
ea th
it e
se l
Ġha st
il t
i an
ou l
im e
ur n
Ġli ke
re e
Ġl ong
ear s
if e
I I
f ul
k s
Ġth rough
Ġo ther
Ġm en
ow n
ow er
Wh ere
ĠC h
5 0
O N
a ce
d e
Ġ (
Ġw ere
ar t
Ġy e
Wh at
rou nd
C h
i ld
Ġw ay
Ġp ra
ad e
res s
a ble
i p
m ent
n e
s h
Ġa d
Ġs c
it s
' re
Y et
w ard
Ġ ro
Ġs er
Ġb re
Th ou
el y
N ot
a w
a ve
Ġth ose
Ġd es
ea l
Ġl et
it ion
Ġ 6
Ġw ell
re d
Wh o
Ġfir st
F rom
Ġs et
Ġo ld
Ġd el
ea st
Ġl ight
Ġg ra
Ġsh ould
Ġe y
Ġon e
Ġsom e
1 0
7 0
M y
a ck
Ġw ord
Ġh on
Ġm ust
Ġm ost
Ġd ark
Ġn ight
Ġthou ght
Ġfa ir
H e
H is
a z
e p
x t
ĠĠĠĠ ĠĠĠ
ou d
Ġb est
ll ow
Ġp re
Wh ich
8 0
S o
a il
l i
l ess
s on
Ġa gain
re ad
ea k
Th en
ĠS t
Ġdo th
au se
B y
b er
o ck
Ġs m
om e
Ġe nd
g in
Ġh ead
en s
ea n
Ġl ast
Ġof t
Ġbe fore
Ġon ce
Ġup on
ig n
9 0
f ull
o f
Ġa pp
Ġt w
Ġt ri
an g
Ġwh ile
Ġst ill
Ġne ver
Ġar t
l es
o v
p er
Ġo ver
ea ce
Ġc all
Ġe v
ĠĠĠĠĠĠĠĠĠĠĠĠĠĠĠĠĠĠĠĠ Ġ
ort al
Ġse c
Ġgl or
Ch or
i ver
s s
Ġ K
Ġ 20
Ġm uch
is s
Ġf ound
Ġl ife
it t
Ġg u
ri ght
ri end
Ġu nder
Ġre m
Wh en
ain s
Ġcon t
O n
i er
er d
Ġp ower
an c
Ġin to
ed s
ĠI n
Ġre p
ĠĠĠĠĠĠĠĠĠĠĠĠĠĠĠĠĠĠĠĠĠĠĠĠ ĠĠ
ĠĠĠĠĠĠĠĠĠĠĠĠĠĠĠĠĠĠĠĠ ĠĠĠ
a le
c ri
e c
r on
y m
Ġ ea
Ġ To
Ġs ing
er n
Ġwith out
Ġre s
Ġthou gh
Ġlo ve
Ġj ust
au ght
Ġhon our
a v
f ter
o ok
Ġb oth
Ġp o
Ġp res
Ġre ad
ĠP h
ĠA r
ĠĠĠĠĠĠĠĠĠĠĠĠĠĠĠĠĠĠĠĠĠĠĠĠ ĠĠĠ
Ġsw eet
Ġ &
Ġf e
Ġl e
Ġn or
Th is
Ġre st
our s
ĠB ro
r is
Ġ 2
Ġf ind
Ġd eath
Ġd own
Ġg ive
Ġwh om
Ġsp ell
ĠĠĠĠĠĠĠĠĠĠĠĠĠĠĠĠĠĠĠĠ ĠĠ
Ġcom m
c l
f e
i eld
p le
Ġ ed
in es
Ġh o
Ġm is
Ġb ring
Ġt ime
ut e
rou ght
Ġk eep
Ġcom e
row n
H E
H ow
M an
a id
b e
i a
i al
o ice
r ong
Ġm ade
Ġb et
ar m
ra g
ĠS on
ĠS am
ain t
Ġat t
Ġne w
op e
ran s
B e
w h
Ġ round
Ġm ind
Ġf ar
Ġb ro
Ġc ould
Ġg o
ad y
Ġas s
ct ion
Ġso on
ĠF a
Ġli ve
ĠSam son
I f
u se
in t
Ġs in
ou gh
Ġp art
Ġp eace
Ġn ame
Th y
ra y
ĠS he
Ġre t
em pt
Ġpl ace
sel f
Ġword s
S h
b s
f er
Ġ 4
in s
Ġm ake
Ġf ull
Ġf ree
Ġt ra
Ġd iv
Ġp ur
Ġp ass
Ġto o
Ġg od
ĠS p
al t
ĠB ut
Ġj oy
Ġman y
Ġim p
Ġea ch
S p
e f
n ing
o c
Ġ ent
Ġs ay
Ġs ight
at ed
ea se
Ġl ow
ĠI s
et s
el s
Ġbe en
Ġon ly
ĠA m
ph erd
Ġear th
Ġri ght
ĠPh il
ĠShe pherd
A t
Q u
U n
g g
j ect
l ed
u res
Ġ r
th e
Ġa ff
in k
Ġf ear
en g
ow s
ar s
ith er
le m
ĠS h
ĠS un
Ġhear d
Ġever y
Ġagain st
cri pt
6 0
7 3
N or
f or
o ther
Ġ 30
Ġ 40
th ing
Ġa cc
Ġs il
Ġw a
Ġw ind
Ġh u
Ġm ortal
Ġf riend
Ġb right
at ch
Ġd ou
Ġl ess
Ġp e
Ġp rin
Ġin t
ir th
Ġwh ose
Ġre v
Ġbe h
im es
if t
os s
Ġser v
Ġed ition
N o
X X
i ly
n es
Ġ 5
Ġ 8
Ġ 9
Ġ Of
Ġa ge
Ġs oul
Ġh um
Ġh eav
ou n
Ġf al
Ġd i
Ġd eep
Ġc ount
Ġp ri
ĠP o
nt o
Ġlo ok
ĠW ood
ĠTh y
Ġver t
Ġpra ise
Ġey es
lem n
S A
T ill
c es
i ke
m e
n ot
v ing
Ġ 3
Ġ 7
Ġa w
Ġs or
Ġs ur
ou se
ou ch
Ġf all
Ġt ill
Ġc are
ir gin
ri d
Ġe m
ion s
ĠL ady
ĠH er
ĠM an
Ġv is
ĠF or
Ġne ed
Ġcon s
ĠĠĠĠĠĠĠĠĠĠĠĠĠĠĠĠĠĠĠĠĠĠĠĠĠĠĠĠ Ġ
ĠLord s
Ġwor k
---------------- ----------------
Ġ16 4
Ġtru e
ilt on
ĠPhil ist
A ll
C om
E S
S t
S uch
d en
e v
i ence
Ġ That
Ġ With
Ġth us
Ġw eak
re at
Ġm i
Ġm ine
on t
Ġd ra
Ġd ear
Ġc ame
Ġc ause
ar y
ĠS ong
el t
al k
ĠP ar
Ġcon f
row s
op le
Ġ16 73
ak es
Ġab out
Ġsee k
ert ain
Ġhand s
ap s
itt le
ĠIs ra
H ad
a ir
a se
h aps
m it
o g
o ver
r ous
u bl
Ġ '
Ġ ere
Ġ 50
Ġth ings
Ġa fter
Ġs ad
Ġw ond
Ġh old
re t
Ġb rought
or y
Ġd ist
Ġl ea
Ġin f
Th ere
Ġme e
Wh ile
Ġfor ce
ĠA l
ĠM ilton
Ġv i
Ġso lemn
Ġsu pp
ie f
ĠE ar
Ġcom p
Ġpl eas
Ġfl ow
Ġan y
Ġstre am
Ġey e
Ġspell ing
Ġgod s
N ow
b t
e ed
i ent
i ble
l ing
o ll
s o
w ell
er c
Ġh ope
re n
en se
Ġd ead
ĠĠĠĠĠĠĠĠĠĠĠĠĠĠĠĠ ĠĠĠ
Ġp ers
Ġp ure
Ġn at
Ġg old
id es
ad es
Ġfor th
us cript
ĠT HE
ĠN ation
Ġhear t
ĠV irgin
ne w
Ġdel ight
Ġtw o
ym ph
Ġle ft
eng th
Ġpe ople
SA L
ĠIsra el
S he
W as
e b
e h
u b
u ous
Ġ ill
Ġs ound
Ġw ar
Ġw ant
re st
Ġb es
Ġb id
at t
Ġl ear
Ġl ittle
Ġl ength
Ġp ar
Th ir
Ġg ri
Ġsh ame
Ġst ra
Ġst ate
al m
ĠL aw
The y
ĠA s
ck s
Ġv oice
Ġch e
Ġch an
Ġno thing
and s
Ġhim self
Ġde f
Ġj ud
ĠĠĠĠĠĠĠĠĠĠĠĠĠĠĠĠĠĠĠĠĠĠĠĠĠĠĠĠ ĠĠ
Ġyou th
Ġen em
ĠĠĠĠĠĠĠĠĠĠĠĠĠĠĠĠĠĠĠĠĠĠĠĠĠĠĠĠĠĠĠĠ ĠĠ
Ġfo llow
Thou gh
Ġ6 0
P SAL
c om
i x
i z
i ed
l s
m ost
p os
u ght
w ith
Ġ i
th ers
ĠĠĠĠĠĠĠĠ ĠĠĠĠ
Ġa ng
Ġs it
Ġw om
Ġw and
Ġh el
Ġh ouse
ou th
ou ght
Ġt ell
Ġt ears
Ġt rans
Ġd a
ĠĠĠĠĠĠĠĠĠĠĠĠĠĠĠĠ ĠĠĠĠĠĠĠĠĠĠĠĠĠĠĠĠĠĠĠĠĠĠĠĠ
Ġc or
Ġl ay
Ġl oud
Ġin ter
Ġg iv
Ġg round
ce pt
Ġha s
Ġwith in
Ġu se
am ent
ĠP rin
ĠA u
ĠC am
Ġv ain
Ġli es
ul t
un e
Ġshe w
Ġam ong
Ġgre en
---------------- --------
II I
ild e
Ġad v
Ġser ve
Ġsm o
Ġev il
Ġglor y
Ġho ly
Ġdiv ine
Ġfal se
1 6
A m
A gain
C o
H ar
a h
a ch
e ther
i b
o ol
p s
p ect
u ri
Ġ eas
Ġth ine
Ġth ink
Ġs ide
Ġw is
Ġo cc
re w
Ġm et
Ġm orn
Ġm ean
Ġf ill
Ġf ore
Ġf oul
Ġb o
Ġb ea
Ġb ed
at er
at ter
ĠĠĠĠĠĠĠĠĠĠĠĠĠĠĠĠ ĠĠ
Ġl ead
Ġl ab
an e
an k
Ġg ave
ce iv
Ġha pp
ĠS o
ĠS w
Wh om
ĠP ri
ĠP ro
ĠM us
ee m
ct ed
Ġsp ir
Ġsp eed
Ġsu b
ast e
res h
Ġch ar
Ġun c
Ġlo st
Ġdo st
Ġbl ind
Ġfa v
ĠTh is
Ġwor th
Ġwor ld
Ġcl oud
Ġru n
ag on
Ġper f
Ġfo es
az e
ĠSt ar
ock s
Ġapp ear
Ġglor ious
aught er
Ġpres ent
Ġread s
ĠEar th
Ġchan ge
H er
I N
I t
L a
O R
W ill
a pt
c red
e ver
i ant
m p
o in
o es
w er
Ġa nt
Ġs k
Ġs le
er v
Ġw r
Ġw alk
Ġh ar
Ġo d
re y
Ġf re
Ġf ire
Ġb ow
Ġb el
ĠĠĠĠĠĠĠĠĠĠĠĠĠĠĠĠ Ġ
Ġl ine
Ġin s
ar ri
Ġg ent
ot t
am es
Ġst ri
ĠL y
The ir
Ġfor g
ĠM o
ct s
em s
Ġde eds
Ġwho le
Ġsa ve
Ġal one
Ġdid st
Ġtru th
Ġtru st
ĠĠĠĠĠĠĠĠĠĠĠĠĠĠĠĠĠĠĠĠĠĠĠĠĠĠĠĠĠĠĠĠĠĠĠĠ Ġ
ĠĠĠĠĠĠĠĠĠĠĠĠĠĠĠĠĠĠĠĠĠĠĠĠĠĠĠĠĠĠĠĠĠĠĠĠ ĠĠ
Ġbre ath
ĠK ing
ris on
Ġ164 5
A b
E N
E R
a pp
d ol
e x
j oy
m er
n ed
r at
r od
u c
y r
Ġ Wh
Ġ rou
Ġs ent
er y
Ġw ise
Ġw ick
Ġh ard
Ġo p
Ġb ound
Ġb ack
Ġt urn
Ġt ouch
or s
or ous
or ious
Ġd ro
Ġd well
Ġl ist
Ġp ut
Ġn um
ch ant
et t
ĠS ons
Ġsh alt
Ġst ood
Ġst ep
ad ise
ĠL ove
Ġso ft
rou d
Ġsu re
ĠT rag
ĠF l
Ġno ise
ĠD agon
end ed
ĠĠĠĠĠĠĠĠĠĠĠĠĠĠĠĠĠĠĠĠĠĠĠĠĠĠĠĠ ĠĠĠ
Ġra ther
eas ure
Ġab ove
Ġper haps
Ġim m
ĠĠĠĠĠĠĠĠĠĠĠĠĠĠĠĠĠĠĠĠĠĠĠĠĠĠĠĠĠĠĠĠĠĠĠĠ ĠĠĠ
Ġbre ak
Not e
Ġthought s
Ġbet ter
ĠCam b
A T
L ike
M ay
a ct
c id
e y
e ous
e xt
g u
g es
i est
i xt
o om
o le
r ate
s p
s wer
Ġ U
Ġ er
Ġ est
Ġa ir
Ġw ra
Ġw ilt
Ġh eld
Ġh ome
Ġm od
Ġm id
Ġf ell
Ġf eet
Ġf ier
Ġb u
Ġb old
Ġt end
es e
Ġd est
Ġd if
ĠĠĠĠĠĠĠĠĠĠĠĠĠĠĠĠ ĠĠĠĠĠĠĠĠĠĠĠĠĠĠĠĠĠĠĠĠĠĠĠĠĠ
Ġc our
Ġc ertain
Ġl ate
Ġl aw
Ġp ast
Ġp oss
Ġp ubl
Ġto ok
Ġto ward
Ġin d
Ġin v
Th rough
ow ers
ed y
it ed
it ies
it ud
Ġg ro
ĠI t
ot s
ĠS oul
Ġsh ades
am p
Ġst rong
Ġre c
Ġre d
Ġre l
ur s
ur st
ur ns
as k
ĠL and
ĠP l
ĠA ir
Ġ1 3
Ġsp eak
Ġsu ff
ĠT ru
Ġne er
ĠO r
Ġk ind
Ġk new
Ġcom es
Ġbl ood
Ġcon c
Ġfa ith
Ġde v
ĠGod s
ĠN ymph
ĠTh ou
Ġse at
Ġar m
ath ers
Ġsee m
Ġcl ose
Ġcan not
Ġqu ite
Ġsec ret
ĠFa ther
Sp ir
for m
Ġbeh old
Ġsor row
Ġweak ness
Ġlea ve
eh ov
Ġgri ef
Ġenem ies
Ġsmo oth
Again st
Ġfav our
Ġwick ed
itud e
X V
a ph
d om
e g
n a
o ly
r one
u ck
v i
v ent
Ġ ut
Ġ el
Ġ 70
Ġ 80
Ġs ense
Ġw o
Ġw on
Ġh or
Ġh ide
Ġh arm
Ġm ea
Ġf ra
Ġf ur
Ġb ear
Ġt u
Ġt ake
Ġt imes
on y
Ġd ue
Ġd read
Ġc ast
Ġl ed
Ġl east
Ġn ear
Th ese
ir c
ir t
ĠS c
ĠS ea
Ġst ay
Ġst and
Ġre as
Ġbe gin
as ion
Ġ1 1
Ġ1 4
ĠH is
all y
ĠC on
ĠC om
Ġv al
ong ue
ĠF athers
Ġch ief
Ġun f
Ġbl ess
Ġbl ack
ĠW or
Ġfa ce
Ġde c
Ġthen ce
ĠN o
Ġsa cred
Ġan swer
Ġse en
Ġgl ad
Ġal so
ĠJ ove
ert y
Ġri d
Ġsc orn
Ġdel iver
Ġgra ve
Ġatt end
Ġwind s
Ġdou bt
Ġvert ue
Ġdra w
Ġgold en
------------------------ ----
Ġwra th
ehov ah
A l
I S
L et
U nder
a ul
b it
b our
p e
r ant
u nder
v ail
w e
Ġ ran
Ġ What
Ġ Qu
Ġth ing
Ġa c
Ġa g
Ġs on
Ġs ist
er ing
Ġw ear
Ġw ish
Ġw atch
Ġh ate
Ġh ence
Ġm on
Ġm us
Ġf anc
Ġf resh
Ġb ra
Ġb orn
Ġb irth
Ġt er
Ġt rou
Ġt em
Ġd on
Ġd one
Ġc u
Ġc ru
Ġc ry
Ġc rown
Ġp roud
Ġin n
it le
Ġg row
ce nd
ce ive
ĠI dol
Ġha llow
am ous
Ġre qu
Ġbe g
ver s
Wh er
ĠA p
ĠA ng
Ġ1 2
Ġ1 5
ĠM ar
Ġor d
Ġv ow
Ġv ar
ĠB y
ord ing
ĠT em
ĠF east
Ġch oice
Ġun w
ĠO F
Ġlo ss
Ġbl iss
ĠD el
Ġde w
Ġpl ay
Ġsa w
Ġsa id
Ġsa fe
ation s
Ġman uscript
Ġar ms
Ġex t
Ġyou ng
Ġal ong
Ġcl ear
Ġri ch
ĠĠĠĠĠĠĠĠĠĠĠĠĠĠĠĠĠĠĠĠĠĠĠĠĠĠĠĠĠĠĠĠ ĠĠĠ
Ġthere fore
pl es
Ġfir m
Ġpra y
Ġgra ce
Ġmis er
Ġret urn
ĠSp ir
Ġaff li
Ġfriend s
rid ge
ĠPar adise
Ġhel p
Ġocc asion
Ġant ient
Ġgent le
ĠLy cid
ĠMo on
Ġel se
A n
A re
E ld
G od
H ere
H ath
I V
I nto
M ess
Q ue
S ON
W ould
b orn
c er
e us
f et
l f
m b
m an
n o
o b
p o
p on
p ose
r s
s and
u al
u ish
v y
Ġ Y
Ġ 90
Ġ Que
th ough
Ġs i
Ġs its
er ve
Ġw ing
Ġw ide
Ġw ings
Ġh ea
Ġh id
Ġh ither
Ġo b
re am
ou ra
Ġm a
Ġm o
Ġm our
Ġf it
Ġf ru
Ġf ast
Ġf east
Ġf ield
Ġt re
Ġd ie
Ġc ond
Ġl ie
Ġin c
Ġin chant
ed ge
ir st
Ġwh y
ot ion
Ġha lf
ra ph
Ġst ran
id st
id ence
ay s
ent ion
Ġthou sand
ain ing
ĠH e
Ġas k
ĠC ount
ĠG ra
Ġv ie
ĠB e
Ġsp read
Ġsu ng
Ġun p
Ġne xt
Ġno ble
ĠO n
ul ous
Ġcon st
ic ation
Ġan other
au nt
Ġwor se
Ġex ce
Ġ10 0
ak ing
Ġpro f
ount ain
Ġknow n
ĠThe y
Ġsec ond
ĠK ings
Sh all
ĠShepherd s
Ġr ise
Ġhu ng
Ġdou ble
Ġhum an
-------------------------------- ----------------------------
og raph
Ġvi ol
erc y
iz e
ĠĠĠĠĠĠĠĠĠĠĠĠ ĠĠ
Am ong
Ġlab our
Ġsub ject
Ġsle ep
Ġimm ortal
ĠLycid as
Ġvie w
1 2
5 3
A N
A R
A fter
H ast
I s
T w
b y
d ed
d den
e le
e ve
h ood
j ust
k en
n ly
o ic
o llow
p it
s u
s om
u es
y l
Ġ :
Ġ ing
Ġ il
Ġ Where
Ġ els
th or
Ġs ate
Ġs ame
Ġs ens
Ġw ea
Ġw el
Ġw ast
Ġw ilde
Ġo thers
Ġm ad
Ġm ark
Ġm outh
is es
Ġf et
Ġb r
Ġb en
Ġt ongue
at is
at es
ll y
en e
en er
en ly
Ġd ore
Ġd ire
Ġl a
Ġp ard
Ġp ale
Ġp ron
an ch
an ks
Ġin de
Ġin ward
Ġwh ether
ch i
et urn
Ġha ir
ĠS ire
ĠS eas
ut ion
ut ograph
ri c
Ġu nd
Ġsh ort
Ġre g
al s
Ġbe c
Ġbe nd
Ġbe ing
id ent
ur b
ro ph
ĠL XX
Wh ose
est er
il es
ĠP eace
Ġfor m
Ġfor t
ĠA n
ĠA t
ĠH ow
ĠH ar
ĠM r
ĠM y
ĠM on
ĠM use
ĠG l
Ġv an
if ts
Ġso l
Ġsu dden
Of f
ant s
ist en
ĠE ng
Ġlo v
Ġli qu
um ent
um ph
ort un
Ġfl ight
Ġfl ood
Ġfl ower
ish on
os om
Ġse ver
Ġwor st
Ġex p
Ġex am
Ġpro v
ab ly
ount ains
ĠJ o
Ġdis pl
Ġfo e
Ġday s
Ġknow s
Ġoff er
Ġmight y
Ġver y
eal th
Ġdark ness
Ġdark nes
Ġpre t
Ġpre vent
Ġsm all
iver s
Ġres ol
Ġpo int
ĠAr t
Ġfe w
Ġcomm on
Ġcomm and
ĠFa ith
Ġcount rey
ĠWood s
ĠPhilist ian
Ġnat ure
Ġjud ge
Ġwom an
Ġcor re
ĠPri est
ĠMus ick
Ġperf ect
ĠTrag edy
ĠCamb ridge
Ġtend er
Ġdif fer
ĠTru th
Ġsist er
ĠQue en
. ]
1 4
D al
I T
I ON
M ore
O ur
P er
S w
S om
W e
W ere
Y our
a ff
c o
e at
g ing
i qu
l ong
m a
n are
o a
o ke
s im
s ight
u p
u nt
v en
Ġ !
Ġ ring
Ġth ick
Ġw at
Ġw ee
Ġw ound
Ġo pp
Ġo bs
Ġm ed
Ġm el
Ġf ly
Ġb ar
Ġb ur
Ġb ook
Ġt im
Ġt ry
Ġt aste
Ġt ext
Ġt ask
or al
or us
at ic
Ġd en
Ġd im
Ġd ance
Ġc ri
Ġc alm
Ġl ot
Ġl est
Ġl and
Ġl ines
Ġp en
Ġto ld
Ġin st
ow r
ow ard
it es
it ie
it ter
le w
Ġwh ite
se c
ch es
Ġha bit
ra l
ut y
Ġsh ap
Ġsh ield
od e
od y
Ġre f
id ing
id ed
as h
ro y
ro ach
Ġon ely
Ġme et
Ġy ield
ĠL et
ĠL ost
Wh y
ĠP al
Ġ1 10
ĠH eb
ĠC our
ĠC apt
ru pt
ast ing
ast ity
Of t
ĠT ri
ĠF riend
Ġne igh
Ġlo ose
Ġlo cks
qu ent
ĠD eath
Ġfa il
Ġfa ther
Ġde g
ĠGod d
eav es
Ġfl ame
ĠN at
ish ment
ĠR el
Ġhear ts
ĠTh en
op s
Ġwor ks
Ġra ise
eas on
ran ce
Ġsw ay
Ġen joy
Ġ16 3
Ġpro ve
Ġpro of
ĠJ ud
ag n
Ġdis c
Ġdis m
Ġdis p
Ġhigh est
Ġfo lly
Ġqu ick
Ġhast e
Ġway s
ment s
sh ip
Ġsc ar
Ġdes ert
az a
read y
Ġev en
itt ing
Ġcont ent
ĠIn f
Ġfe el
ĠAm ong
Ġacc ording
Ġsil ence
Ġwa ves
Ġprin ted
Ġserv ice
Ġem ph
ĠPhilist ines
Ġwond er
Ġpers on
Ġdef ence
Ġang er
Ġwand ring
ĠAu g
Ġeas ily
Ġbo ast
Ġhapp y
Ġspir its
Ġchar ms
Ġmod ern
Ġut most
Ġmea ns
Ġfur ther
irc um
Ġfanc y
ĠAng el
ĠDel iver
fet y
Ġpard on
Ġinde ed
1 1
1 3
E M
H im
H ence
S m
S ab
S ome
a ves
b ra
c i
e el
g le
h n
i res
l ock
m m
m in
m on
n k
n ight
o ast
p ire
p rin
p ass
r ine
s ion
u nd
v ate
y ll
y ing
Ġ --
Ġ ve
Ġ et
Ġ id
Ġ ke
Ġ Yet
Ġ rans
th en
Ġth rone
ĠĠĠĠĠĠĠĠ ĠĠ
ĠĠĠĠĠĠĠĠ ĠĠĠĠĠĠĠ
Ġa ct
Ġs end
Ġs ought
Ġw ed
Ġw it
Ġw ood
Ġw eep
Ġw ert
Ġw ild
Ġw ont
Ġh ur
Ġh ill
Ġh ost
re p
re th
re ath
Ġm al
Ġm ur
Ġm ess
Ġf in
Ġf ro
Ġf ight
Ġf ond
Ġf ears
Ġf amous
Ġb ad
Ġb ore
Ġt en
Ġt aught
on es
or a
or m
at ely
at ience
en ge
Ġd am
Ġd aughter
Ġd urst
ĠĠĠĠĠĠĠĠĠĠĠĠĠĠĠĠ ĠĠĠĠĠĠĠĠĠĠĠĠĠĠĠĠĠĠĠĠĠĠĠĠĠĠ
Ġc ar
Ġc ro
Ġc ol
Ġl y
Ġl ing
Ġl im
Ġl aid
Ġp it
Ġp un
Ġp ens
Ġn one
ow re
ow ing
ar g
ar ing
Ġg ain
Ġg ift
Ġg rant
ĠI le
ĠS ph
ĠS aint
ri es
ri ce
Ġsh ine
Ġsh ade
Ġst ore
Ġre ceive
ver se
Ġnot e
ĠL a
The e
ĠA ll
ĠA ss
Ġ1 7
Ġ1 20
Ġ1 30
Ġ1 40
Ġ1 50
ĠH ill
ĠH ost
ĠM en
ĠM ag
ĠG ath
ĠG iant
ĠG aza
ge on
ru d
Ġv ol
ĠB ra
ĠB ook
us h
us ion
Ġsp ort
Ġsp ring
Ġsp elt
Ġit s
ord s
ĠT ime
ĠF rom
Ġch ance
Ġch ild
Ġch arm
Ġne eds
Ġne gle
ĠE l
qu er
Ġcom b
Ġcom ing
Ġcom pl
Ġli b
Ġbl ast
Ġbl aze
ul ar
um m
um ber
pp ing
ard s
Ġpl ain
Ġpl ease
iv ity
ĠN ame
ĠR e
Ġsa ge
Ġsa fety
ĠTh ere
Ġthir st
Ġgl oom
now n
now led
Ġex pl
Ġex act
Ġra ce
Ġam idst
Ġsw ord
Ġ16 0
oth ing
Ġab s
Ġsee ms
Ġcl ad
Ġru de
Ġru sh
Ġcan st
ĠJ ehovah
Ġear s
ĠĠĠĠĠĠĠĠĠĠĠĠĠĠĠĠĠĠĠĠĠĠĠĠĠĠĠĠĠĠĠĠ Ġ
Ġfo ol
bl ed
Ġqu est
Sam son
Ġsl ow
Ġsl ain
sel ves
ip s
ne y
Ġad d
Ġend s
Ġoft en
Ġgu ide
Ġgu ilt
Ġrem em
Ġcont empt
ym n
Ġsing le
ern al
Ġbet ray
wh ere
Ġbro od
Ġtra in
Ġent er
ĠSh all
Ġsil ver
Ġbeh ind
oun sel
Ġpri de
Ġpri me
Ġlook s
Ġvert uous
Ġaw ay
Ġvis it
mit ted
Ġwond rous
Ġsupp l
ĠNation s
Ġwant on
Ġlear n
Ġlear ned
Ġda ily
ĠPrin ces
ĠAu thor
Ġmorn ing
Ġspir it
Ġcloud s
oin ted
Ġbel ow
Ab ove
Ġrou t
Ġnum ber
Ġfier ce
Ġcour se
Ġsuff er
ĠNymph s
Ġreas on
we en
Ġac cept
Ġinn oc
Ġord er
Ġvar ious
ĠSpir it
Ġmour n
Ġwel com
Ġfet ch
atis f
anch oly
ĠEng l
Ġexam ple
Ġneigh bour
Ġrans om
Ġmess age
A C
A S
B l
C on
C he
D ON
E D
E x
E nt
F ar
H ave
I X
L isten
M e
N othing
S c
a x
b es
b ing
b ut
b id
c or
c ess
c ure
c ious
c ean
c ience
d i
d y
d le
d ition
g l
g on
g ress
h er
i i
i o
i ot
i et
i us
j est
l ight
n er
n al
o ar
p ort
t is
t ers
u pt
y ri
y ond
z e
Ġ row
Ġ ire
Ġ Who
Ġ When
Ġth an
Ġth row
Ġth ree
Ġth rong
Ġth under
Ġa ught
Ġa cts
Ġa utograph
in ct
Ġs ore
Ġs ign
Ġs atisf
er a
er se
Ġw rought
Ġw rong
Ġh our
re ts
Ġm in
Ġm ut
Ġm ist
Ġm ass
Ġm ov
Ġm ute
Ġm ilde
Ġm otion
Ġm ention
Ġf old
Ġf rown
Ġb in
Ġb ri
Ġb ran
Ġb urn
Ġb ase
Ġb att
Ġb ody
Ġt une
or row
at s
Ġd et
Ġd ri
Ġd rin
Ġd rows
Ġd ream
Ġd ishon
ea m
Ġc a
Ġc ut
Ġc ease
Ġc ool
Ġc apt
Ġl ament
Ġp op
Ġp age
Ġp ress
Ġp ains
Ġn igh
ing ly
Th us
om b
om p
it al
ar ge
Ġg on
Ġg ay
Ġg rows
Ġg irt
Ġg ifts
ir ce
Ġwh er
Ġwh ence
ĠI ron
ch er
ch ing
ot e
Ġha ving
ra w
ra ll
ĠS in
ĠS ir
ĠS ain
ri ed
Ġu r
Ġsh ore
Ġsh out
ear ing
Ġst ring
Ġst eep
Ġst ray
Ġre new
Ġre ceiv
Ġe ev
al ks
Ġbe f
ur y
ur ing
ent s
as se
ro se
Ġnot es
ĠL ib
il st
our ing
ĠP an
ĠP res
ĠP rison
Ġfor s
ĠA d
Ġ1 70
ĠH y
ĠC l
ĠC y
ĠC ity
ĠC ons
ck nowled
ĠG ent
ge ther
ee k
if ie
ĠB ar
Ġsp are
Ġsp red
Ġsp ec
ĠT re
ĠT im
res ent
nt s
Ġch ains
em n
Ġun just
ĠO cean
ph eus
ĠE b
ĠE n
ĠE ast
Ġlo ad
Ġlo ath
Ġk n
Ġli ving
Ġdo es
Ġdo om
Ġbl est
Ġbl ame
Ġthem selves
ĠD o
ĠD ay
ic er
ic ious
um es
Ġde b
Ġpl ight
Ġpl ant
un geon
iv es
Ġfl ed
Ġfl ocks
ish t
ĠR eturn
Ġsa ke
Ġan ough
ĠTh us
Ġar g
Ġra ge
Ġal as
Ġal ready
Ġgre et
Ġsw ift
Ġen v
Ġen cl
Ġ16 53
ak en
rin a
ab les
Ġab ode
Ġear ly
ĠV ine
Ġper form
pl ess
ass on
Ġfo ot
ĠHeav en
bl ing
Ġqu it
ĠThe ir
Ġim b
Ġwould st
Ġsl aughter
Ġver se
sel ess
ĠCh er
ĠCh ar
ĠCh orus
Ġro ck
Ġbre st
Ġdes p
Ġdes ire
Ġdes cend
Ġpre y
Ġhead s
Ġtri m
Ġsec ure
iss ion
Ġea se
Ġlove ly
av ing
av ish
Ġrest ore
Ġmis prin
Ġbring s
Ġsin ce
Ġret urns
Ġright eous
gg ed
Ġaff ect
Ġsil ent
Ġfriend ly
Ġrev eal
ĠThy rs
ĠMan uscript
ĠMan oa
Ġmi o
Ġmi xt
Ġinf l
Ġstream s
Ġpar ts
Ġstra it
ĠPrin ted
Ġevil s
uri ous
Ġwis dom
ĠPro f
IN G
OR D
Ġsk ill
arri age
app y
ĠWh y
Ġstep s
Ġest eem
Ġdest roy
Ġposs ess
Ġind ign
Ġwon ted
Ġhor rid
Ġattend ant
Ġmiser able
Ġfru it
Ġconst ra
Ġexce ll
Ġpron oun
Ġbec ause
ĠJo hn
Ġmed it
ĠRel ig
Ġemph as
Ġet ernal
Ġid le
Ġmur m
ĠThyrs is
1 5
1 7
A I
A M
C an
D e
D is
E n
F ull
H O
I mp
J ehovah
L ove
M ight
M ine
M ade
N e
N at
O S
O ver
O EM
T ell
T rans
U S
U pon
Y ou
a im
a fe
b ar
b ers
b and
b ably
c y
c ons
c chi
d s
e pt
f l
f old
f ted
f ollow
g ment
h or
h ead
i ar
l orn
m ity
o i
o ff
o int
o bs
o eb
p ing
p est
p ress
r or
r ut
t y
t ar
u a
v ial
w ay
w as
w ail
y e
y pt
z a
Ġ .
Ġ ris
Ġ Un
Ġ ------------------------
ĠĠĠĠ ĠĠ
Ġth reat
Ġa p
Ġa st
Ġa id
in ch
in ks
Ġs ort
Ġs igh
Ġs ease
er fore
Ġw in
Ġw ent
Ġw ine
Ġw ife
Ġw ealth
Ġw alks
Ġh orn
Ġh eal
Ġo ught
re me
Ġm er
Ġm ain
Ġm ould
Ġm ak
Ġm ount
Ġm ove
Ġm atch
Ġm irth
Ġm ercy
Ġf u
Ġf at
Ġf our
Ġf ee
Ġf ron
Ġf aint
Ġf ix
Ġf ixt
Ġb us
Ġb ind
Ġb row
Ġb ud
Ġb ears
Ġb anks
Ġt e
Ġt ear
Ġt empt
Ġt akes
Ġt itle
or th
or ies
at in
at ing
en ch
Ġd w
Ġd em
Ġd ust
Ġd eal
Ġd anc
Ġd aint
ea ch
ea ks
ĠĠĠĠĠĠĠĠĠĠĠĠĠĠĠĠ ĠĠĠĠĠĠĠĠĠĠĠĠĠĠĠĠĠĠĠĠĠĠĠĠĠĠĠĠ
Ġc al
Ġc ur
Ġc ent
Ġc iv
Ġc old
Ġc ele
Ġl od
Ġl end
Ġl ust
Ġl ap
Ġl ater
Ġp ace
Ġp atience
Ġn er
Ġn on
Ġn ur
st all
st and
Ġto y
an y
Ġg ot
Ġg aze
le t
se en
ĠI f
ve l
ch ed
ch arg
ot ted
Ġha unt
ĠS l
ĠS at
ĠS ac
ĠS cept
el m
el est
el ess
Ġu nto
Ġsh ad
od ious
Ġst ud
Ġst ory
Ġre b
Ġre ar
Ġre ck
Ġe ff
al y
ay ing
ur o
ver ing
ro ve
ro ad
Ġme m
Ġy ears
ĠL ad
ĠL ON
Wh ether
ill ars
est iv
our ney
ĠP s
ĠP ip
ĠP ubl
Ġfor mer
Ġfor bid
ĠH ath
ĠM el
ĠM ess
ĠM aid
ĠM other
Ġas h
ĠC an
To o
ess ant
ck t
ĠG o
ĠG old
ru ction
Ġv ast
us k
Ġsp ent
Ġsp ee
ord ed
ĠT w
ĠT itle
ĠF ame
Ġch ose
em per
ant e
ant ine
Ġun h
Ġun s
ist s
ist es
ist ed
and o
Ġlo ves
Ġwas h
Ġbl oss
ol ation
ul g
ĠD e
ĠD an
ic al
um e
ĠW om
ĠW ind
ĠW ilt
Ġde ed
Ġpl ac
iv ing
iv ine
Ġj ourney
Ġfl ie
Ġfl ock
Ġfl ames
ĠN ight
ĠR u
Ġhear ken
os i
os o
os es
op es
Ġgl i
Ġgl ut
Ġstre w
Ġshe en
Ġra is
Ġal most
ig li
Ġam orous
Ġen th
Ġen ough
Ġhad st
are nts
Ġpro ph
ond s
Ġab ide
Ġab road
Ġcl ime
Ġru in
Ġru le
Ġout ward
ĠJ oy
ĠJ ac
ert ue
ĠV i
ag er
ac le
ac sim
Ġqu ell
Ġqu aint
Ġday es
Ġgood ness
ap ital
Ġoff ice
Ġsl ight
Ġver s
ON G
ress es
Ġro se
Ġro of
Ġbre ed
Not es
Ġdes c
eal ous
Ġnight ly
ep ul
li ke
ĠSt ars
full y
Ġtri umph
Ġtri vial
ang u
ang led
per ience
Ġover t
Ġgu ard
Ġrem ains
Ġrem aining
On ce
ier ce
Ġrep ort
Ġrep roach
cri ber
Ġres pect
aught ers
Ġpo et
Ġpres ence
ĠAr c
ĠAr m
ĠAr ms
Ġfe ign
ĠBro thers
Ġmis ch
rag on
Ġnew s
Be fore
wh ich
Ġbro ad
Ġbro ok
Ġsoon er
Ġpur s
Ġpur pose
Ġpass age
Ġimp ortun
Ġent ertain
Ġacc ident
Ġmortal s
Ġprin ter
Ġhum ble
ĠPo em
ĠPo ets
ĠPo ems
Com es
Ġdra wn
akes p
Ġseek ing
Ġmee k
Ġvi ct
Ġsupp ose
Ġpleas ure
Ġflow ry
oll o
Ġpers w
Ġdelight s
Ġbes ides
Ġpar ted
Ġenem y
Ġfollow s
Ġi o
Ġwom b
Ġtrans gress
Ġgiv es
Ġadv ant
Ġeas ie
Ġwis est
Ġfore t
Ġbea ms
Ġlead s
erv ed
Ġwr it
Ġhar sh
Ġod ours
Ġod orous
Ġfre ed
Ab out
rat a
Ġop en
Ġbound s
Ġcour t
Ġposs ible
Ġpubl ic
Ġtoward s
amp ion
Ġhide ous
ĠSc ene
Ġreas ons
Ġbegin s
ĠCom us
ĠWor ld
Ġag ed
Ġtrou ble
Ġtem per
Ġrequ est
Wher with
ĠTem ple
Ġaffli ction
oura ge
oura ble
Ġtre as
ĠCount rey
Ġviol ence
Ġmouth s
Ġbr ute
Ġben eath
Ġreg ard
ĠLXX X
ĠGl ass
Ġdiffer ent
Ġtim ely
Ġden y
ĠCapt ive
ĠTri be
ĠGodd es
Ġscar ce
ĠDeliver er
Sab rina
oast s
Ġke pt
Ġling ua
Ġpun ishment
Ġlib erty
ĠEngl ish
gon istes
Ġdrows ie
ĠSain ts
ĠCy n
cknowled ge
ĠEn em
Ġarg ument
Trans criber
oeb us
Ġ------------------------ --
ĠLON DON
) .
) ;
. '
A d
A r
A ff
B es
B en
B oth
C l
C ould
D own
D ep
D ef
E L
E T
E ither
F ear
F ind
F ame
F irst
G u
H el
I D
L est
L ess
L ES
O M
P l
P ar
P ON
R E
R I
R e
R ise
S in
S le
S ee
T ri
T HE
T oward
V I
V II
V III
W ar
Y e
Y ea
a i
a res
a ther
a ult
b re
b ow
b ed
b ro
b ian
c is
c use
d ing
d est
d ess
d iant
e k
f ord
g o
g s
g er
g al
g ue
h ear
h and
h old
i or
i ate
i pt
i um
i ance
i ov
k es
l ab
l orious
l asting
m ble
m rose
m ission
n ers
o ot
o id
o of
o ots
o osom
p ro
p ath
p ond
p ris
p ense
r it
r ot
r ise
s ie
s ol
t ri
u ence
u pp
v est
w ise
w ixt
x x
y our
z en
Ġ Z
Ġ ir
Ġ ign
th ere
th ought
ĠĠĠĠĠĠĠĠ ĠĠĠ
Ġa yr
Ġa cknowledge
in th
in ing
in ess
Ġs n
Ġs y
Ġs ed
Ġs us
Ġs ong
Ġs ig
Ġs alt
Ġs na
Ġs nare
Ġs eason
Ġs itting
er ous
Ġw ake
Ġw ave
Ġw ater
Ġw reath
Ġw aving
Ġh it
Ġh ee
Ġo h
Ġo re
Ġo bl
Ġo be
re h
Ġm ir
Ġm ood
Ġm iss
Ġm aid
Ġm akes
Ġm easure
Ġm agn
is c
is it
is ion
Ġf le
Ġf em
Ġf ant
Ġf ood
Ġf ate
Ġf ame
Ġf its
Ġf ountain
Ġb a
Ġb er
Ġb ru
Ġb and
Ġb ount
Ġb ank
Ġb lew
Ġb ones
Ġb onds
Ġt y
Ġt ro
Ġt est
Ġt um
Ġt read
Ġt rod
on na
ll a
ll en
en a
en ius
Ġd u
Ġd ea
Ġd ull
Ġd red
Ġd ang
Ġd ying
Ġd rud
Ġd aughters
ea re
ea ther
ea ble
ea ns
ĠĠĠĠĠĠĠĠĠĠĠĠĠĠĠĠ ĠĠĠĠĠĠĠĠĠĠĠĠĠĠĠĠĠĠĠĠĠĠĠĠĠĠĠĠĠĠĠ
Ġc ure
Ġc orn
Ġc reat
Ġc over
Ġc rew
Ġc irc
Ġc ounsel
Ġc apital
Ġc ourage
Ġl on
Ġl at
Ġl ent
Ġl ull
Ġl ean
Ġl ift
Ġl eaves
Ġp u
Ġp rom
Ġp ort
Ġp ull
Ġp ity
Ġp ath
Ġp aid
Ġp rison
Ġp rod
Ġp owers
Ġp omp
Ġp ierce
Ġn am
Ġn ames
st er
st ain
st ers
st em
ing le
ing ale
Ġto gether
an th
Th rice
it ted
ar ch
Ġg r
Ġg ar
Ġg one
ir d
Ġwh eel
se em
ĠI N
ĠI vy
ve y
ch e
ch o
ot es
et ra
et imes
ĠS y
ĠS en
ĠS il
ĠS ever
ĠS erv
ĠS eat
ĠS ONG
ĠS epul
ut s
Ġu nt
Ġsh ow
Ġsh am
Ġsh are
ere nd
Ġst ar
Ġst ir
Ġst ain
Ġst ru
Ġst ands
Ġre ach
Ġre nown
Ġe ie
Ġe qu
al es
al il
Ġbe yond
Ġbe wail
id s
id er
ur ch
ro ves
ion ess
Ġme er
Ġy on
Ġy ear
Ġy ee
Ġy oke
ĠL ion
ĠL ife
ĠL ike
ĠL angu
il ight
il ity
ain ted
our se
ĠP R
ĠP er
ĠP aul
ĠP OEM
ĠP illars
ĠP arents
Ġfor c
Ġfor lorn
ĠA x
ĠA nt
ĠA cts
ĠA yr
ĠA gonistes
Ġ1 80
Ġ1 90
ĠH on
ĠH ear
ĠH all
ĠH eath
ĠH oly
ĠH ymn
ĠH oasts
all ow
ĠM at
ĠM it
ĠM ay
ĠM ill
ĠM ercy
Ġas ide
ĠC ause
ĠC ont
ĠC irce
ĠG re
ĠG ree
ge ous
Ġv ill
Ġv ile
Ġv ac
Ġv ows
ct u
if i
if ted
Ġso oth
ĠB l
ĠB ri
ĠB ab
ĠB east
ĠB reth
us band
Ġsp ear
Ġsu p
Ġsu nk
Ġsu llen
ast ers
ĠT urn
ĠT roph
ell e
ĠF ur
ĠF irst
ĠF acsim
Ġch i
Ġch ang
Ġch astity
Ġch eek
ant o
Ġun ex
Ġun ivers
Ġne cess
Ġno on
ĠO x
ĠE d
ĠE g
ĠE p
ĠE x
With out
Ġlo ft
Ġk iss
Ġcom ple
Ġbl ow
Ġbl ot
Ġbl oom
ol t
ol ence
ĠD ragon
ic es
ic ulous
um b
ĠW e
ĠW o
ĠW ar
ĠW ill
ĠW ine
ĠW ife
ĠW arri
Ġfa c
Ġfa ct
Ġfa ult
Ġde cl
Ġpl edge
eav ing
eav our
Ġshall ow
Ġj oc
Ġj oin
Ġj ealous
Ġsom etimes
ĠN az
ĠN ept
ĠR ight
ĠR ead
ĠR eg
ead s
os a
os yll
Ġsa ble
op y
op ing
ound s
ound ed
Ġthir d
Ġex pect
Ġex perience
Ġex cuse
ire d
Ġra sh
Ġra ign
Ġra diant
Ġam or
ran n
Ġsw ain
Ġen s
rin t
Ġpro ves
Ġpro cl
Ġpro pos
Ġpro bably
ab l
Ġru ine
Ġru les
Ġru ral
Ġru gged
oy ce
ud d
ĠJ ust
Ġear n
ert o
Ġever lasting
ĠV erse
Ġdis pos
Ġdis gu
Ġper ish
ac ious
Ġwe eds
Ġim ag
Ġim pl
Ġhow ever
Ġoff ence
cc ess
Ġsl umber
Ġgreat er
ian s
ĠCh astity
ĠCh ampion
ĠCh urch
Ġpra i
sh ood
Ġad orn
Ġsc ap
ward s
Ġro b
Ġro ar
Ġdes erve
Ġgra y
Ġshould st
Ġpre fer
So ft
li er
li est
Ġend ed
Ġlast ly
Ġtw ilight
ang s
Ġcall s
Ġev ent
Ġsec rets
Ġgu ess
Ġcont r
Ġcont ra
Ġrep rint
ec ause
Ġres ort
Ġpo or
Ġpo ems
Ġpres um
Ġread y
Ġread er
ĠPh oebus
Ġsweet ly
Ġfe ats
Ġrest less
ĠBro ther
Ġspell s
cl ean
fe it
Ġho llow
Ġatt empt
Be gin
Ġfar r
Ġbro ther
Ġcould st
Ġass ur
Ġass ail
ction s
ĠFa ir
Ġlive ly
Ġtra vail
Ġpur ple
ĠSp ring
Ġjoy n
Ġearth s
gg s
Ġwa ies
Ġhu nder
Ġprin t
Ġint ent
Ġint ended
Ġrev enge
Ġrev erend
Ġedition s
ĠOf f
Ġheav enly
oun c
Ġfal shood
ĠPo et
Ġvert ues
Ġsur round
ĠHer oic
Ġvis ion
Ġvis age
ĠSong s
Ġconf usion
over n
Ġwond ers
Ġdist ress
Ġsupp ort
Ġcomp ar
Ġpleas ing
Ġpleas ures
Ġflow ers
erc ise
Ġdead ly
Ġnat ures
Ġwar r
Ġbes ide
ĠLaw ns
Ġche er
Ġyouth ful
Ġfollow ed
Ġang ry
Ġang uish
Ġcor rupt
Ġgiv en
Ġadv ise
Ġocc urs
Ġbea m
Ġbea uty
Ġlab ours
ĠSw ain
ĠPri mrose
eem ing
Ġchar ge
Ġblind ness
Ġworld s
Ġperf et
Ġsk ies
Ġwr ite
Ġod ious
Ġfre ely
Ġfre quent
Ġstri ct
Ġstri fe
Ġforg ive
EN T
ĠWh ose
Ġtouch t
Ġnum bers
Ġsure ly
act er
sp ring
Ġer r
Ġfier y
Ġdest ruction
Ġdif f
Ġpubl ish
Ġgro ve
ĠTru mp
Ġconc eal
Ġconc ern
Ġfaith ful
Ġarm ed
Ġwicked ness
Ġut ter
Ġharm ony
Ġfra il
Ġnear er
Ġunf old
Ġrid iculous
Ġdeliver ance
IS T
Ġran k
ĠQu ire
Ġac qu
Ġwear y
Ġmus ick
Ġtrou bl
Ġcu or
Ġcru el
ĠIdol s
Wher in
ĠAp ollo
ĠMar ble
ĠTem ples
ĠSpir its
SON G
mb ly
po ems
Ġhea ve
Ġhea ps
Ġhid den
Ġma jest
Ġfield s
Ġstran ge
Ġsleep ing
ĠSire ns
ĠLXX XV
Ġfort une
Ġliqu or
Ġliqu id
Ġsever al
Ġresol v
Per haps
Sw eet
Ġwat ry
Ġobs cure
Ġmel odious
Ġbar ren
Ġbur den
Ġcri e
sec ute
Ġshap es
ĠLet ter
ĠCour t
ĠCour ts
ircum cis
Him self
Ġhur t
Ġhost ile
Ġcro ss
Ġpens ive
ĠSaint ly
ĠHost s
Ġnegle cted
Ġcomb at
Ġcompl ain
ĠRe gain
Ġgloom y
Ġquest ion
Ġremem b
Ġsuppl ies
Ġinnoc ence
AC E
Con f
bing er
upt ial
yri an
Ġburn ing
Ġur g
ĠLib erty
Ġspec ial
ĠEb rew
ĠEast ern
ĠCher ub
Ġrighteous ness
Ġinfl uence
Ġmedit ate
ĠRelig ion
Nat ure
Ġap ace
Ġfron t
Ġcal am
Ġcent er
Ġciv il
Ġcele b
Ġner ves
Ġnur se
ĠSac ri
ĠScept er
elest ial
Ġshad ows
Ġreb ell
Ġmem ory
ĠPubl ic
Ġbloss om
ĠNight ingale
ĠRu th
igli a
Ġenth ron
ĠJac obs
Ġpurs ue
Ġforet old
Bes ides
Sin ce
lab our
Ġsig ne
Ġsna res
Ġcreat ures
ĠLangu age
ĠTroph ies
ĠFacsim ile
Ġloft y
ĠNept une
Ġprocl aim
. --
1 8
2 4
3 8
4 7
A G
A h
A y
A pp
B et
B ear
B rought
C A
C ame
C ons
C HE
C ont
D a
D o
D ro
D raw
D ivine
E nd
E re
F l
F air
F ollow
G ent
G ain
G ave
G reat
H Y
H ear
H id
H ard
H eav
H ail
I B
I C
I M
I R
I r
I nt
I mm
J ust
L E
L ord
L ook
M ust
M ost
M uch
M ean
M irth
M asson
N G
N ight
N ymph
N ext
O L
O P
P H
P h
R Y
R eturn
S T
S et
S ent
S to
S ec
T A
T H
T O
T is
T rag
U M
U p
U nt
V ertue
X I
a us
a fter
a eus
b oosom
c in
c an
c al
c ly
c est
c ont
d er
d ra
d ay
e er
e en
e ge
e ated
f ill
f ort
f ice
f ect
g n
g an
g oes
h ow
h air
i el
i am
i ally
j ud
k in
k ie
k nown
l and
l ip
l ause
m ore
m bl
m aid
n et
o z
o il
o its
p ar
p ra
p oral
r our
r ist
r ons
r ated
r rata
s se
s per
s afe
t a
t i
t or
t le
u i
u ce
u ra
u all
u ff
u alt
v ere
v il
w s
w or
w orn
w ater
y s
y re
z za
Ġ ?
Ġ x
Ġ z
Ġ es
Ġ ess
Ġ eld
th at
th rown
Ġth ri
Ġth ither
Ġth ank
Ġth rall
Ġth erfore
ĠĠĠĠĠĠĠĠ Ġ
Ġa u
Ġa v
Ġa ble
Ġa ust
in c
in v
in ter
in ish
Ġs im
Ġs ine
Ġs qu
Ġs ick
Ġs ings
Ġs ons
Ġs ix
er able
er min
nd e
Ġw an
Ġw et
Ġw id
Ġw est
Ġw ak
Ġh ell
Ġh ind
Ġh ol
Ġh ue
Ġh ours
Ġh ealth
Ġh opes
Ġo cchi
re l
re ar
re nt
re ase
re ls
ou ns
Ġm ate
Ġm eas
Ġm ag
Ġm ild
Ġm ia
Ġm other
Ġm elt
Ġm erc
Ġm atter
Ġm ountains
Ġm oral
Ġm orrow
is se
is per
Ġf ing
Ġf ut
Ġf am
Ġf ul
Ġf un
Ġf right
Ġf estiv
Ġb an
Ġb le
Ġb ent
Ġb east
Ġb alm
Ġb uri
Ġb ane
Ġb ott
Ġb urst
Ġb itter
Ġt al
Ġt all
Ġt ree
Ġt ang
Ġt urb
Ġt each
Ġt resses
es h
es ie
on a
on c
on ious
or able
or geous
at ly
at rous
ll s
ll ic
en o
en es
en ry
Ġd in
Ġd om
Ġd ir
Ġd il
Ġd ate
Ġd are
Ġd ry
Ġd ale
Ġd rew
Ġd ank
Ġd amp
Ġd aunt
Ġd ash
Ġd ungeon
Ġd uro
Ġd rear
Ġc ra
Ġc am
Ġc ell
Ġc ost
Ġc oy
Ġc ens
Ġc ours
Ġc ase
Ġc ircum
Ġc ords
Ġc elestial
Ġl ord
Ġl ake
Ġl ack
Ġl ang
Ġl atter
Ġl uck
Ġl ately
Ġl arge
Ġl avish
Ġp h
Ġp et
Ġp il
Ġp ost
Ġp eal
Ġp ause
Ġp ec
Ġp ett
Ġp rot
Ġp angs
Ġn ak
Ġn aught
Ġn ought
Ġn urs
st al
st ood
st rous
st rate
st antine
ing uish
Ġto p
Ġin h
Ġin fer
Ġin most
Ġin form
Ġin iqu
Th ine
ed ly
ed ition
om ent
it ent
it able
ar ite
ith e
Ġg ate
Ġg ran
Ġg rown
Ġg ates
Ġg ener
ce ed
ce it
le eve
ve ls
ch us
ch aste
ch ioness
Ġha p
Ġha ples
ra m
ra nd
ra is
ra im
ra ss
ĠS er
ĠS ion
ĠS now
el ie
ri b
ri l
ri ous
ri vi
Ġu ph
Ġu seless
Ġsh ook
Ġsh ady
Ġsh ifts
Ġsh rine
ear ch
ere ft
am or
am eld
am ber
am ily
Ġst o
Ġst or
Ġst ro
Ġst ead
Ġst age
Ġst ern
Ġst ub
Ġst ole
Ġst eel
Ġst orm
Ġst ately
Ġre ver
Ġre gain
Ġre nder
Ġre com
Ġre joy
Ġe ies
al f
al ms
Ġbe leeve
im mer
ly s
ur g
ur p
ent y
ent ed
as ions
ver t
ro ll
Ġnot ed
Ġy ea
ĠL o
ĠL ill
ĠL ocks
ĠL uc
ĠL AT
ĠL eaves
ĠL ORD
ĠL atin
Wh ilst
ill ions
est a
est ing
est ic
il s
il ing
il ot
il ous
ĠP ra
ĠP ers
ĠP red
ĠP ilot
Ġfor ms
ĠA G
ĠA gain
ĠA eg
ĠA utograph
Ġ1 9
ĠH es
ĠH ell
ĠH erd
ĠH ope
ĠH ouse
ĠH air
ĠH EN
all el
ĠM S
ĠM a
ĠM e
ĠM in
ĠM orn
ĠM ount
ĠM ountain
ĠM ountains
ĠM AS
ĠM asson
ĠM arriage
Ġas cend
ore st
ĠC ry
ĠC ave
ĠC ows
ĠC oun
ĠC oll
ĠC up
Ġall ow
To ok
ĠG u
ĠG enius
ĠG overn
Ġor n
ru st
ru ng
ru nk
Ġv ent
Ġv ig
Ġv ag
Ġv ap
Ġv irgin
Ġv oyce
ct ar
if ication
Ġso v
Ġso yl
ĠB ond
ĠB ac
ĠB irth
ĠB eh
Ġher ds
Ġsp ot
Ġsp un
Ġsp ake
Ġsp oke
Ġsp eaks
Ġsp angled
Ġsp hear
Ġit self
ord on
Ġsu m
Ġsu ck
Ġsu per
Ġsu bs
Ġsu oi
ast er
ast le
ast ick
ĠT O
ĠT or
ĠT ill
ĠT ray
ĠT owers
ĠT omb
ell s
ĠF ort
ĠF ool
ĠF oes
ĠF amily
res pond
Ġch a
Ġch o
Ġch ill
Ġch ain
Ġch ime
Ġch use
em ph
em pl
ant i
ant le
Ġun st
Ġun ite
Ġun sh
Ġun lock
Ġun seen
Ġun clean
Ġhe at
Ġhe ir
Ġne at
Ġne ither
Ġne ctar
ist rat
ose ph
ĠO N
ph ear
ph raim
ĠE D
ĠE m
ĠE th
ĠE nd
ĠE le
ĠE ld
ĠE ur
ĠE ars
ĠE ev
ĠE rrata
ĠE lys
ĠE phraim
With in
pt uous
Ġk not
Ġli k
Ġli v
Ġli ves
Ġbl own
Ġbl ank
ol ves
ul se
ul sion
ul iar
ĠD a
ĠD ian
ĠD alil
end ing
Ġcon v
ic ount
um mer
ust rious
ĠW is
ĠW est
ĠW ool
ĠW inch
Ġde ity
Ġde ceiv
Ġde ceit
Ġpl ea
un k
un s
Ġj oint
Ġfl atter
Ġfl esh
Ġsom thing
ĠN or
ĠN ay
ish es
ĠR E
ĠR h
ĠR oy
ĠR ocks
ĠR ob
ĠR eason
ĠR oses
Ġhear th
Ġup right
os en
os ing
Ġwill ingly
Ġsa f
Ġsa v
ĠTh om
ĠTh ine
au gh
Ġse es
Ġse est
Ġse ven
Ġthir ty
orn ing
Ġgl ist
Ġgl ance
Ġgl owing
Ġstre et
Ġwor ship
Ġshe ild
Ġman s
Ġar ise
Ġar gu
Ġar ched
Ġex ec
Ġex empt
Ġex cept
Ġra y
Ġra re
Ġra pt
Ġal ter
Ġal ike
ig ious
Ġam ain
Ġam end
Ġam aze
ick le
Ġen com
Ġen chant
Ġen vy
ak er
rin k
Ġpro port
Ġpro secute
Ġpro sper
Ġab hor
Ġwhere in
Ġwhere fore
For s
Ġsee ing
Ġcl ust
Ġru m
ĠJ oseph
Ġever more
ĠV ale
ĠV icount
ag es
Ġdis ease
Ġdis sol
Ġhigh th
Ġhigh er
Ġhigh ly
Ġper mitted
Ġper ilous
pl oy
ĠHeav ens
ac c
ac y
ac inth
Ġ* *
Ġqu iet
Ġknow st
ĠThe e
ĠThe m
Ġim it
Ġtru ly
Ġoff ended
Ġsl ide
Ġsl ip
Ġsl ack
Ġsl avish
Ġgreat est
Ġver d
ilt y
ree p
Ġother wise
ĠCh ance
ĠCh rist
Ġye er
Ġye ers
Ġpra ier
Ġpra ises
Ġad m
Ġad ore
Ġad de
Ġro om
Ġro ot
Ġro sie
Ġbre ad
Ġ6 70
Ġ6 80
Ġlight er
Ġgra in
Ġgra cious
Ġshould ers
Ġsome thing
Ġhon est
Ġfair ly
He b
Ġbest ow
Ġpre p
Ġpre vail
So on
read er
ĠSt ate
Ġhead long
Ġlast ing
Ġapp ears
Ġapp reh
Ġtw ain
Ġtw isted
Ġtri al
Ġtri pp
Ġover thrown
Ġ20 0
Ġfound ation
Ġgu ile
Ġunder stood
Ġrem or
Ġrem ov
Ġcont in
ier i
Ġpower ful
anc y
anc es
anc ers
Ġrep ent
ec y
ym e
Ġsing ing
Ġres ist
av en
av our
Ġpo em
Ġsweet est
Ġfe ed
Ġle g
ĠBro ok
Ġ2 2
Ġ2 5
Ġ2 20
Ġ2 10
Ġ2 90
Ġfind ing
Ġcomm end
Ġcomm ands
Ġcomm itted
Ġkeep s
Man y
Ġbet ween
Ġatt ention
wh at
wh en
Ġmind s
Ġbro ke
Ġgo es
Ġass ay
Ġass ign
Ġass aul
Ġass ault
int ers
Ġsin cer
empt ion
Sh ould
Ġtra ins
Ġpur pos
Ġpur su
Ġpass ion
Ġjoy es
Ġimp ort
Ġimp os
Sp eak
Ġent ers
Ġlow est
ĠAm ar
Ġright ly
ĠPhil oso
Un less
gg i
Ġr od
Ġaff ord
ĠSh eep
ĠSh akesp
cript ion
Ġhu ge
Ġint end
Ġserv il
Ġserv ant
Ġserv itude
Ġ8 10
Ġ8 80
Ġheav y
Ġdi am
Ġcount er
Ġ7 60
Ġsor ry
Ġsor rows
Ġsur charg
Ġsur pris
Ġsur vey
Ġem bra
Ġvis ited
Ġcons um
Ġcons ort
Ġcons cience
Com us
ES T
St ill
Ġdear ly
Ġconf in
Ġconf ess
Ġconf us
Ġconf idence
Ġafter wards
Ġsad dest
Ġdist urb
Ġlea f
Ġlea gue
Ġinf li
ĠAl tar
Ġcomp any
Ġpleas ant
ren ch
Ġpers ons
Ġnat ive
Ġwar bled
Ġwar bling
Ġwant ed
Ġlear nt
Ġgri m
Ġstra in
ĠLaw es
Ġjud gment
Ġyouth full
ix ed
Ġi i
ĠĠĠĠĠĠĠĠĠĠĠĠ Ġ
Ġwand er
Ġhel pless
Ġtrans l
Ġtrans form
Ġcor poral
Ġadv ent
Ġadv anc
Ġsmo ak
16 73
Ġmet re
Ġbo osom
ĠSo lemn
ĠSw ord
ĠPro se
ĠMus es
Ġunc outh
Ġunc essant
Ġunc ircumcis
Ġworth y
Ġworth iest
OR ACE
cred ible
Ġsk y
Ġwr itt
Ġbow r
ott on
ott age
Ġforg ot
Ġbreath ing
ĠKing dom
Ġrou l
Ġdro ve
Ġlist en
ett ers
ĠFl ocks
ĠFl owers
AT ION
ey s
gu ided
rate ful
ĠU nto
Ġer rand
Ġest ate
Ġmid st
Ġmid night
Ġbu on
Ġbu ilt
Ġbu ild
Ġdest in
Ġcertain ly
Ġlaw s
Ġpubl ick
Ġinv ite
Ġstrong est
Ġrec orded
Ġred emption
Ġrel ie
ĠPl ut
ĠOr pheus
Ġblood y
Ġfaith full
Ġdev out
Ġdev otion
Ġseat s
aph a
Ġwo e
Ġwo o
Ġmea nt
Ġfra ilty
Ġtu a
Ġtu fted
ĠCon quer
ĠCon stantine
Ġval our
Ġval ue
Ġchief ly
Ġbless ing
ĠWor ks
ĠNo ble
Ġglad ly
Al as
Ġran g
Ġran ks
Ġag en
Ġmon osyll
Ġmon strous
Ġmus ing
Ġbra nd
Ġtem ple
Ġtem pest
Ġcu i
Ġcru de
Ġinn um
Ġbeg an
ĠAng els
ĠMar chioness
ĠDel ph
Ġrich est
Ġfirm ament
Ġmiser ies
Ġreturn ing
Ġaffli ct
ĠY outh
Ġob ject
Ġmo an
Ġmo ist
Ġcond ition
Ġcond emn
Ġinchant ing
Ġinchant ments
ĠHe be
ĠGra ces
ĠBe fore
Ġspread s
Ġunp ar
aunt ing
Ġexce ed
Ġviol ent
Among st
pit aph
Ġsens ual
Ġsens ualt
Ġwea pon
Ġdore s
Ġpron ouns
Ġbec ome
roph e
Ġvan qu
Ġprov idence
ĠJo ves
Ġpret ious
Ġresol ution
Ġcorre ction
ĠPriest s
iqu e
Ġring s
Ġthick est
Ġwat ers
Ġwound s
Ġopp ress
Ġmel ancholy
Ġbook s
Ġcri me
Ġpen itent
Ġshap e
ĠPal est
ĠPal ace
rupt ed
ĠFriend s
ĠGodd ess
ĠNat ure
ĠNat ivity
Ġ163 7
ĠJud ge
ĠJud ah
Ġdism al
ĠInf ant
ĠAmong st
Sm o
Ġwed lock
Ġwit ness
Ġweep ing
Ġhill s
Ġdam sel
Ġcar ry
Ġpens ieri
ĠSph ear
ĠLa ure
ĠAss es
ĠHill s
ĠMag istrat
ĠBra cly
Ġcharm ed
Ġnegle ct
umm ers
Ġplain ly
Ġexpl oits
Ġexact ly
Ġguilt y
Ġremem ber
Ġbrood ing
Ġsuppl ication
Ġinnoc ent
Ġneighbour hood
Bl ind
Ent er
cor respond
her it
Ġsatisf i
Ġmass ie
Ġbran ches
Ġbatt el
Ġdet ermin
Ġdrin k
Ġdrin ks
Ġdishon our
Ġeev en
ĠPres ident
Ġfors ook
ĠHy acinth
ĠCons cience
ĠGent iles
Ġspred s
ĠTim na
Ġloath som
ĠDo ct
Ġenv ious
ĠChar iot
Ġmisprin t
Ġmisprin ts
Ġindign ities
Ġconstra in
Ġemphas is
Ġmurm urs
You ng
cons um
follow s
Ġris es
Ġthreat n
Ġsigh s
Ġmatch less
Ġfat al
Ġfee ble
Ġdw els
Ġeff ect
ĠLad ies
ĠMel ancholy
Ġspee ch
ĠTw o
Ġwash t
ulg ar
ĠDe itie
ĠWom en
Ġproph ane
Ġovert ake
Ġmisch ief
Ġimportun ity
Ġentertain ment
Ġvict orious
Ġpersw ade
Ġadvant age
Ġfreed om
ĠEnem ies
Aff ord
Par adise
hand ed
Ġsy stem
Ġobe y
Ġfem ale
Ġfant astick
Ġba its
Ġtest ifie
Ġdrud ge
Ġcirc le
Ġlon ely
Ġlat est
Ġprom pt
Ġgr ind
ĠPOEM S
ĠHeath en
Ġvac ant
ĠBri de
ĠBreth ren
Ġunivers al
Ġcomple at
umb ring
ĠWo otton
Ġjoc ond
ĠNaz arite
ĠRead er
ĠReg ions
Ġens nare
ĠJust ice
Ġearn est
Ġdisgu ise
Ġimag in
Ġscap e
Ġcontra di
Ġhunder d
ĠOff icer
Ġdiff us
Ġrememb rance
Ġceleb rate
Gain st
Ġsine ws
Ġful fill
Ġbott om
Ġdom estic
Ġdil ig
Ġlang uish
Ġpec uliar
Ġpett y
Ġprot ect
Ġnak ed
Ġrejoy ce
ĠAeg ypt
ĠHEN RY
ĠBeh old
ĠDalil a
ĠWool f
ĠWinch ester
ĠRoy al
Ġsincer ely
ĠPhiloso ph
ĠShakesp ear
Ġmonosyll ables
ĠMagistrat es
! )
' ,
' m
) ,
. )
. ,
4 3
4 9
6 7
7 1
9 4
9 7
: --
A H
A W
A p
A ng
A cc
B in
B re
B ea
B id
B ro
B est
B ore
B ring
B itter
B earing
B rut
B LES
B ecause
C T
C our
C ome
C yri
C osi
C astle
D i
D es
D ri
D ang
D iss
D ev
D well
D ER
D idst
D ishon
E ar
E ase
E dition
E HO
E ye
F e
F ly
F ill
F all
F ore
F ool
F avour
G n
H N
H on
H igh
H ome
H app
H AT
H appy
H alf
H ORACE
I G
I L
I th
I ES
I dol
J ud
L O
L Y
L od
L ay
L ight
L ie
L ist
L ead
L ab
L ife
L ift
L IS
L ORD
L atin
L iving
M r
M en
M et
M ent
M ad
M ee
M ake
M ove
M other
M ilton
N ove
N one
N ING
N ET
O h
O ut
O HN
P re
P ri
P rom
P ort
P ull
P rin
P art
P resent
P uts
R es
R an
R ight
R ose
R end
R ough
R eg
R ob
R eve
S ea
S em
S eas
S elf
S ons
S ave
S IR
S ummers
T E
T ake
T ime
T urn
T ON
T imes
T ouch
T emper
U s
U PON
V isit
V AH
W ent
W HAT
X II
X III
X IV
X IX
a ld
a al
a ver
a wn
a ild
b d
b il
b us
b oth
b atter
c u
c ing
c ed
c ere
c ur
c ad
c us
c ue
c ip
c ome
c over
c opy
d u
d es
d on
d st
d el
d ain
d ist
d ens
d raw
e th
e ph
e qu
e els
e ople
e pping
f ed
f ast
f ind
f ound
f ts
f ace
f riend
f rag
f amous
f irst
f ric
f ax
f ixed
g y
g et
g od
g id
g are
g ian
g led
g irt
h ere
h am
h ad
h em
h eld
h ouse
h ib
i k
i as
i our
i all
i ct
i ph
i pp
i able
i ction
i ena
j u
j ur
k y
k ly
k ind
l t
l ow
l ay
l ose
l ick
l ings
l ove
l ian
l ave
l ov
l ittle
l ips
l ids
m o
m es
m en
m ind
m ine
m uch
m ov
m per
m aking
m bling
n el
n all
n ell
n ish
n ity
n ance
n eath
n ets
o e
o on
o ath
o cc
o ft
o ars
o ggs
p et
p ly
p ent
p ers
p ell
p ake
p art
p ides
p erty
r h
r ation
s ear
s aw
s ial
t re
t ir
t ch
t ick
t to
t les
t ars
t imes
t wixt
u ed
u ng
u cc
u ilt
u able
u nto
u ces
u ral
u gl
v an
v ow
v ed
v ar
v al
v ol
v ious
v ish
v ity
w ing
w ra
w age
w eet
w atch
w ays
x ious
y th
y le
y ard
y rann
y gian
z z
z or
z ing
Ġ iv
Ġ rough
Ġ --------------------------------
Ġ While
Ġ ----------------------------
th s
th ia
th ors
Ġth in
Ġth orn
Ġth red
Ġth rown
Ġth rows
Ġth resh
Ġth anks
Ġth rice
Ġa z
Ġa er
Ġa pt
Ġa ire
Ġa gg
Ġa verse
in a
in ent
in ion
in ous
in ence
in ely
in ated
in ary
Ġs ea
Ġs ow
Ġs ut
Ġs al
Ġs ly
Ġs and
Ġs now
Ġs eas
Ġs ym
Ġs ia
Ġs ides
Ġs ize
Ġs owr
Ġs ourse
Ġs earch
er on
er ate
er ish
er ity
er ries
nd s
nd red
Ġw th
Ġw ain
Ġw ight
Ġw all
Ġw ard
Ġw orn
Ġw rin
Ġw ears
Ġw ip
Ġw ail
Ġw ily
Ġw akes
Ġw rest
Ġw aste
Ġw oes
Ġw iles
Ġw ires
Ġw olves
Ġw inters
Ġh ed
Ġh om
Ġh ous
Ġh ie
Ġh ang
Ġh ier
Ġh ook
Ġh usband
Ġh udd
Ġo w
Ġo ri
Ġo il
Ġo mit
Ġo bt
Ġo we
Ġo mitted
Ġo mission
Ġo oz
Ġo nde
re et
re quent
ou bl
ou bt
Ġm ar
Ġm ere
Ġm ort
Ġm az
Ġm use
Ġm ult
Ġm ask
Ġm aking
Ġm arriage
Ġm oment
Ġm illions
is on
is ies
is era
Ġf ed
Ġf ain
Ġf ence
Ġf elt
Ġf uri
Ġf ester
Ġf lew
Ġf urious
Ġf ickle
Ġb ill
Ġb ord
Ġb are
Ġb ab
Ġb ark
Ġb rown
Ġb rows
Ġb ays
Ġb orrow
Ġb ird
Ġb olt
Ġb ereft
Ġt or
Ġt ir
Ġt am
Ġt ast
Ġt res
Ġt ame
Ġt un
Ġt ab
Ġt ap
Ġt ail
Ġt ale
Ġt aint
Ġt reat
Ġt alk
Ġt urns
Ġt rance
Ġt aken
es o
es se
es sel
es bian
on ed
on ishment
or p
or ch
or ter
or ick
or cer
at i
at en
at ers
at ick
at ona
ll ing
en c
en u
en ed
en om
en ess
en us
en em
en ces
Ġd y
Ġd er
Ġd al
Ġd ight
Ġd rou
Ġd az
Ġd ign
Ġd rag
Ġd aring
ea ms
ea ried
ĠĠĠĠĠĠĠĠĠĠĠĠĠĠĠĠ ĠĠĠĠĠĠĠĠĠĠĠĠĠĠĠĠĠĠĠĠĠĠĠĠĠĠĠ
ĠĠĠĠĠĠĠĠĠĠĠĠĠĠĠĠ ĠĠĠĠĠĠĠĠĠĠĠĠĠĠĠĠĠĠĠĠĠĠĠĠĠĠĠĠĠ
Ġc re
Ġc le
Ġc as
Ġc un
Ġc op
Ġc ull
Ġc ark
Ġc red
Ġc east
Ġc aught
Ġc oll
Ġc rest
Ġc ater
Ġc oin
Ġc arri
Ġc amp
Ġc urs
Ġc urb
Ġc oward
Ġc erto
Ġc reep
Ġc ottage
Ġl if
Ġl ose
Ġl ag
Ġl ower
Ġl az
Ġl ink
Ġl easure
Ġl ining
Ġp ay
Ġp ent
Ġp ill
Ġp ain
Ġp oy
Ġp aw
Ġp ack
Ġp air
Ġp rone
Ġp owre
Ġn od
Ġn est
Ġn ine
Ġn au
Ġn elle
Ġn uptial
st ar
st ru
st ance
st ret
st ery
st epping
st reet
ing ing
Ġto re
Ġto ol
Ġto mb
an n
an et
an im
an za
an ctu
Ġin ex
Ġin cid
Ġin credible
Ġin herit
Th an
Th ose
Th ence
Th ings
Th ink
Th ither
Th reat
Th erfore
ow l
ow red
ed ia
ed ience
ed ges
ed ication
om in
it or
it ous
it ic
it ation
it ness
ar ce
ar row
ar rels
Ġg ust
Ġg au
Ġg ames
Ġg rat
Ġg iov
Ġg orgeous
ir l
ir m
ir ing
ir able
ir mity
ce ly
le et
le ep
le cted
Ġwh ist
Ġwh ets
Ġwh ilst
Ġwh eels
Ġwh irl
se t
se ll
se mbly
se mbl
ĠI nd
ĠI les
ĠI nto
ch ers
ch ool
ch oes
ch ordon
ot y
ot ent
ot ous
et er
et ic
et ime
et atis
et ween
Ġha b
Ġha il
Ġha inous
ra c
ra vail
ra ma
ĠS m
ĠS ore
ĠS ee
ĠS ist
ĠS elf
ĠS uch
ĠS to
ĠS ome
ĠS ec
ĠS av
ĠS ub
ĠS ands
ĠS yl
ĠS up
ĠS AM
ĠS upp
ĠS kie
ĠS ummer
ĠS iena
ĠS isera
ĠS orcer
ĠS anctu
ĠS chool
ut es
ut ed
ut ies
el es
el ve
el ic
el ter
el ief
el iest
Ġwith al
Ġwith stand
ri ve
Ġsh re
Ġsh ed
Ġsh ell
Ġsh un
Ġsh eep
Ġsh ake
Ġsh ag
Ġsh ears
Ġsh own
Ġsh atter
Ġsh roud
Ġsh uts
Ġsh orter
Ġsh elter
ear th
ear ning
ear led
ere us
am y
am ins
od ies
Ġst at
Ġst ing
Ġst are
Ġst art
Ġst ress
Ġst ock
Ġst ony
Ġst aff
Ġst ops
Ġst eam
Ġst earing
Ġre n
Ġre now
Ġre pl
Ġre ward
Ġre ins
Ġre cks
Ġre vel
Ġe at
Ġe ight
Ġe ither
Ġe cho
al ent
al ity
al ians
Ġbe ll
Ġbe gu
id dy
im m
im s
im ate
im ps
im ney
ay es
ur d
ur ther
as p
as on
as ie
as ph
as ies
as per
ver ty
ro l
ro p
ro vers
ro cal
ad ia
Ġmy ster
Ġmy stery
Ġon es
Ġon ward
Ġme ed
Ġnot ice
ĠL e
ĠL ight
ĠL ud
ĠL iver
ĠL ook
ĠL ute
ĠL oc
ĠL over
ĠL easure
ĠL amp
ĠL AW
ĠL esbian
ĠL atona
ĠL earning
Wh il
est im
est ures
The m
il est
il ist
il ian
ain ed
ĠP at
ĠP ear
ĠP rom
ĠP ag
ĠP ass
ĠP ens
ĠP ray
ĠP alm
ĠP atience
ĠP AS
ĠP omp
ĠP eople
Ġfor rest
Ġfor feit
ĠA T
ĠA y
ĠA le
ĠA ct
ĠA pp
ĠA cc
ĠA sh
ĠA bra
ĠA ires
ĠA then
ĠA reth
ĠA fric
ight ed
ĠH a
ĠH or
ĠH am
ĠH ast
ĠH ind
ĠH and
ĠH ag
ĠH ears
ĠH ec
ĠH IS
ĠH appy
ĠH elm
ĠH usband
ĠH enry
all enge
ĠM er
ĠM is
ĠM or
ĠM id
ĠM ist
ĠM irth
ĠM OR
ĠM easure
ĠM AI
ĠM asters
ĠM antle
ĠM urther
Ġas under
Ġas pire
ĠC H
ĠC re
ĠC at
ĠC ar
ĠC ell
ĠC are
ĠC he
ĠC ip
ĠC ock
ĠC ome
ĠC ouch
ĠC arri
ĠC ounsel
Ġall ay
rom well
ess o
ĠG O
ĠG ard
ĠG ive
ĠG ray
ĠG ates
ĠG ener
ĠG rove
ĠG roves
Ġor bs
Ġis su
ee ks
ee ces
ru e
ru s
ru sh
ru cted
Ġv all
Ġv ail
Ġv oc
Ġv ouch
Ġv ary
Ġv aul
Ġv oid
Ġv ulgar
Ġv enom
Ġv ilest
ct ate
Ġso le
Ġso il
Ġso ild
Ġso ber
Ġso fter
Ġso ever
Ġso llic
ĠB E
ĠB Y
ĠB r
ĠB ow
ĠB ed
ĠB ear
ĠB ee
ĠB ull
ĠB oth
ĠB oy
ĠB att
ĠB ridge
ĠB ays
ĠB owre
ĠB ards
ĠB ird
ĠB ecause
ĠB aal
ĠB erries
ers cription
us al
us can
Ġher b
Ġher oic
Ġsp ed
Ġsp le
Ġsp ect
Ġsp oil
Ġsp rung
rou ble
-------- -
Ġsu bl
Ġsu mm
Ġsu stain
Ġsu ccess
Of fer
ĠT ur
ĠT rin
ĠT ab
ĠT ap
ĠT own
ĠT yr
ĠT ext
ĠT ongue
ĠT oward
ĠT roy
ĠT etra
ĠT yrian
ĠT HY
ĠT IM
ĠT yre
ĠT ravail
ell d
ell ing
ong s
ong st
ĠF re
ĠF ro
ĠF ate
ĠF av
ĠF OR
ĠF ountain
ĠF AI
ĠF estiv
ĠF orest
ĠF leet
res ist
Ġch ear
Ġch ast
Ġch ide
Ġch aste
Ġch oic
Ġch orus
Ġch allenge
Ġch eeks
em m
em in
ind ic
ant a
ant ic
Ġun b
Ġun th
Ġun ion
Ġun if
Ġun us
Ġun bl
Ġun able
Ġun less
Ġun arm
Ġun su
Ġun rep
Ġun like
Ġun known
Ġun chaste
Ġun emph
Ġun equ
Ġun god
Ġhe ed
Ġhe el
Ġhe ere
Ġhe ight
Ġno v
Ġno ok
ist ing
ist ot
ist les
ich or
ĠO re
ĠO ld
ĠO ur
ĠO ak
ĠO cc
ĠO de
ĠO mitted
ĠO rac
ph et
ĠE u
ĠE v
ĠE ter
ĠE ns
ĠE cl
ĠE uri
ĠE dition
ĠE cho
ĠE NG
ĠE pitaph
and al
ate ver
Ġlo y
Ġlo ving
qu est
qu ie
qu ainted
Ġk ing
Ġk ill
Ġcom ment
Ġcom ely
Ġcom fort
Ġli p
Ġli ps
Ġli ken
Ġdo l
Ġdo ct
Ġdo ings
Ġdo ff
Ġdo ors
Ġbl ab
Ġbl az
Ġbl ows
Ġbl und
Ġbl ithe
Ġbl asph
ol n
ol v
ol ve
ol som
ul ent
ĠD i
ĠD es
ĠD ow
ĠD am
ĠD un
ĠD ost
ĠD eep
ĠD one
ĠD own
ĠD ale
ĠD ames
ĠD ungeon
ĠD ivine
ĠD onna
ĠD edication
ĠD rama
end eav
end ix
Ġcon cl
Ġcon ject
Ġcon ceiv
Ġcon vers
Ġcon ven
Ġcon quer
ic s
ic ient
ic ament
ic eable
ic acy
In fer
ĠW it
ĠW all
ĠW ild
ĠW rit
Ġfa ble
Ġfa rew
Ġfa ery
Ġde er
Ġde ck
Ġde fe
Ġde fer
Ġde ject
Ġde bt
Ġde ceive
ĠGod like
pp er
ard ed
row le
row ess
row ns
Ġpl ead
Ġpl ots
Ġpl uck
Ġpl umes
Ġpl enty
un a
un c
un o
iv id
iv eness
old s
ure d
ost s
ost roph
Ġj o
Ġfl o
Ġfl ing
Ġfl our
Ġfl oud
ĠN ow
ĠN ot
ĠN ect
ĠN otes
ĠN uptial
ĠN ereus
ĠR ain
ĠR ose
ĠR ep
ĠR ome
ĠR ev
ĠR ites
Ġhear s
Ġhear se
ead ows
Ġup ward
os ure
os pit
Ġsa ith
Ġsa ving
Ġan n
Ġan on
Ġan ointed
ĠTh rough
ĠTh rone
Ġse x
Ġse ed
Ġse vere
op les
ound ing
ile ment
orn o
Ġgl ass
Ġgl ade
Ġgl itter
Ġgl immer
Ġstre ets
Ġstre tch
Ġwor m
Ġwor s
Ġman ly
Ġman hood
Ġman sion
Ġman ner
Ġus age
Ġus urp
Ġar ri
Ġar ts
Ġar ray
Ġex pos
Ġex cess
Ġex ercise
Ġra ig
Ġra ins
Ġal ive
Ġal oud
Ġal though
Ġal way
Ġal oof
Ġam az
Ġam ber
Ġam iss
Ġam bit
Ġgre w
Ġgre edy
Ġ10 20
Ġ10 10
ick s
ick ly
ran ge
Ġsw orn
Ġsw eep
Ġsw art
Ġsw arm
Ġen c
Ġen mity
Ġen ameld
Ġen roll
Ġ16 30
Ġ16 70
ath e
oth ers
rin x
Ġpro perty
ab b
ab il
ab out
Ġab use
Ġwhere of
For get
Ġsee ks
Ġcl otted
Ġru th
Ġru st
Ġru ff
ud ing
ud ed
ĠJ aw
ĠJ oll
Ġear st
Ġear liest
ert on
ert ie
ĠV ers
ĠV ac
ĠV ertue
ĠV ales
Ġri p
Ġri de
Ġri fe
Ġri gg
Ġri vi
Ġri pe
Ġri lls
Ġri gid
Ġri otous
ag le
ag ion
Ġdis se
Ġdis son
Ġdis app
Ġdis pose
ĠĠĠĠĠĠĠĠĠĠĠĠĠĠĠĠĠĠĠĠĠĠĠĠĠĠĠĠĠĠĠĠ ĠĠĠĠĠĠĠĠĠĠĠĠĠĠĠĠĠĠ
Ġthere of
Ġthere by
Ġper ple
Ġper mit
Ġper ceiv
Ġper ceive
Ġper dition
Ġper pet
ark le
pl ed
pl ay
ass es
ass ail
ĠHeav enly
ac es
ac les
ac quainted
bl in
Ġqu ire
Ġqu ires
Ġqu ench
Ġself e
Ġwe ed
Ġwe pt
ons isten
Ġgood ly
Ġgood nes
Ġim per
Ġtru mp
Ġoff end
Ġoff erd
Ġoff ering
eet ing
Ġsl iding
Ġsl umbring
Ġsl aver
Ġver nall
urn al
Ġlong er
ĠCh a
ĠCh amber
ON IST
de part
art ing
art ial
Ġway es
Ġpra ct
ress ion
ip rocal
ne th
sh ine
sh ipt
Ġad j
Ġad mit
Ġad ded
Ġsc ore
Ġsc ant
Ġsc aly
Ġsc rivi
Ġro be
Ġro bes
Ġbre ast
aw s
Ġdes po
Ġdes olation
Ġlet ters
Ġ6 20
Ġ6 30
Ġ6 40
Ġ6 50
Ġ6 10
Ġ6 90
Ġold er
Ġdel ay
Ġdel icious
Ġdel icacy
Ġgra ss
Ġgra ces
Ġsome what
Ġhon ied
Ġhon ourable
Ġbest ed
Ġpre cious
Ġpre fixed
ail s
ail ing
ĠSt ones
ĠSt ygian
ĠSt anza
Ġsm ite
Ġsm art
Ġsm iling
Ġend eavour
gin al
ens ive
Ġapp ro
Ġapp roach
Ġapp lause
Ġapp endix
Ġtw ise
Ġtw ice
Ġtri b
Ġtri ple
Ġtri cks
Ġcall ing
Ġcall ed
Ġev ents
Ġsec ular
Ġglor ifie
ĠK id
ĠK ey
ĠK night
ĠK ING
Ġfound ed
Ġfound ations
Ġgu id
Ġgu est
Ġgu ided
Ġunder stand
Ġunder go
Ġunder neath
Ġrem ed
Ġrem it
Ġrem ain
Ġrem ove
Ġrem ark
Ġcont est
Ġcont emn
Ġcont rovers
Ġcont agion
On ly
ier y
erd on
anc ing
Ġrep ast
Ġrep air
Ġrep rod
Ġrep eated
ale m
cri b
ec a
ec ially
ron ounc
ym en
Ġres ide
Ġres ign
Ġres idence
Ġres cue
Ġres ounding
Ġjust ly
Ġjust ice
Ġpo co
Ġpres age
Ġpres erv
Ġpres erved
Ġread ing
ĠPh ill
ĠAr ch
ĠAr istot
Ġsweet s
Ġsweet nes
Ġfe at
Ġle ggi
Ġ2 4
Ġ2 30
Ġ2 40
Ġ2 50
Ġ2 70
Ġ2 80
Ġ2 60
Ġdeath s
Ġdown ward
Ġcomm its
cl ed
fe u
Ġho le
Ġho vering
Ġmis ery
Ġbring ing
Ġkeep ing
HE N
HE RE
be g
be en
ia e
ia h
Ġbet wixt
ĠSon net
Ġatt ire
Ġatt ended
Ġatt orno
Be yond
wh om
wh ose
wh ile
wh elm
Ġbro k
Ġbro thers
Ġass ert
Ġass wage
Ġsin ners
Ġsin cere
Ġpart ic
Ġpeace full
Ġret ir
Ġret ire
Ġret ains
Ġret ired
Ġret ained
Sh akesp
Sh iph
Ġ4 8
Ġ4 20
Ġ4 30
Ġ4 40
Ġ4 50
Ġ4 10
Ġ4 70
Ġ4 80
Ġ4 90
Ġ4 60
Ġtra de
Ġtra vels
Ġdiv ide
Ġpur ity
Ġpass es
Ġpass ing
Ġpass ions
Ġpass ages
Ġgod dess
ĠSp ells
Ġjoy ous
Ġimp ious
Ġimp rison
Ġimp ression
oc iate
Ġent ra
Ġent rance
Ġent omb
Ġsight s
Ġlow ly
ĠAm or
ĠAm ber
ĠAm mon
ĠAm bro
Ġright full
Qu el
Qu al
Qu ando
Qu ickly
Un mind
Ġr h
Ġr ott
Ġaff right
Ġfear d
eng er
ĠSun s
for th
Ġ30 0
Ġ40 0
Ġacc om
Ġacc ount
Ġsil k
Ġwa it
Ġwa ight
Ġwa vering
Ġwind ing
Ġhu nt
Ġhu gg
Ġhu ndred
Ġfriend ship
atch t
Ġdou ne
Ġpe er
Ġpe oples
Ġprin ci
Ġprin ters
Ġint rod
Ġrev eng
Ġbeh eld
Ġserv ile
XX I
nes se
Ġ5 20
Ġ5 30
Ġ5 40
Ġ5 50
Ġ5 10
Ġ5 70
Ġ5 80
Ġ5 90
Ġ5 60
Ġ8 20
Ġ8 30
Ġ8 40
Ġ8 50
Ġ8 70
Ġ8 90
Ġ8 60
Ġ9 20
Ġ9 30
Ġ9 40
Ġ9 50
Ġ9 10
Ġ9 70
Ġ9 80
Ġ9 90
Ġ9 60
Ġsoul s
Ġhum m
Ġhum ours
Ġhum ane
Ġheav iest
Ġfal s
Ġdeep est
Ġpri vate
Ġpri vil
ĠPo le
me il
not es
Ġ3 20
Ġ3 30
Ġ3 40
Ġ3 50
Ġ3 10
Ġ3 70
Ġ3 80
Ġ3 90
Ġ3 60
Ġ7 20
Ġ7 30
Ġ7 40
Ġ7 50
Ġ7 10
Ġ7 70
Ġ7 80
Ġ7 90
Ġaw a
Ġaw e
Ġsor cer
Ġsur c
Ġsur m
Ġsur fet
Ġfall acious
Ġcare er
Ġcare ful
Ġcare less
rid es
Ġem b
Ġem ploy
Ġem inent
ĠHer b
ĠHer et
ĠHer mes
ĠMan y
Ġneed st
Ġcons ent
Ġcons olation
Ġcons ider
Ġ164 1
ĠPhilist ine
Com m
ES S
ES ENT
St re
St and
St rong
ev ent
Ġmi x
ont rou
elt y
alk ing
Ġconf ine
ĠIsra els
Ġ50 0
Ġdist ra
Ġdist ill
Ġdist ance
Ġdist inct
Ġinf amous
Ġinf irmity
Ġinf amy
There fore
There by
ĠAl b
ĠAl p
ĠAl pheus
ĠAl tars
Ġvi i
Ġsolemn ly
Ġsupp li
ĠEar l
Ġcomp ly
Ġcomp are
Ġcomp ass
Ġcomp aring
Ġflow r
Ġflow re
Ġflow res
ĠVirgin ity
Ġill ustrious
Ġsound s
Ġwar rant
Ġwant ing
Ġbes pake
Ġbid s
att ers
Ġpar l
Ġstra ight
Ġstra ins
ĠLaw s
ĠAs k
ĠAs sembly
Ġche ck
Ġche if
Ġdef end
Ġdef iance
Ġjud g
Ġjud ges
Ġfollow ing
Ġ60 0
iz on
iz ed
Ġi ii
Ġwom en
Ġhel m
Ġtell s
Ġtrans port
Ġda ies
Ġda wn
Ġda ign
Ġlay es
Ġloud ly
Ġinter est
Ġinter pose
Ġinter nal
ĠAu thors
Ġamong st
16 53
ib ly
ib us
Ġwis ard
Ġwis ely
Ġmet ric
Ġmean ing
Ġbo ist
Ġbo ots
Ġbea uties
Ġbed e
Ġlead en
Ġhapp en
Ġhapp iest
ĠSw eet
ĠSw ains
ĠPri vate
ĠPro v
ĠMus ic
Ġspeed y
Ġsub du
Ġchar iot
Ġunc on
Ġunc ontrou
Ġfav ours
Ġrun ning
ĠStar r
Ġpresent ing
Ġpresent ed
ĠEarth s
Ġsle ek
Ġwr ote
Ġhar ms
Ġhar bour
Ġhar binger
Ġbow res
Ġbel ief
Ġbel ongs
Ġins ide
Ġins ult
Ġins olence
Ġgent l
Ġstri ve
ĠLy ric
Ġforg o
Ġforg ery
Ġforg iveness
Ġtrust ed
ĠKing ly
ER S
ex ts
rat itude
uc ing
uc ent
Ġop e
Ġop enly
Ġop inion
Ġdro pt
Ġdro pping
Ġdro oping
Ġdwell s
Ġdwell ings
Ġlist ed
ett a
ett ing
Ġsoft ly
ĠTrag ic
ĠFl ute
Ġbreak s
eous ness
ole t
sp read
ĠU r
ĠU pon
ĠU PON
Ġer st
Ġair y
Ġmod est
Ġmod erate
Ġmid dle
Ġlaw ful
Ġpast oral
Ġind ivid
Ġinv ok
Ġinv inc
Ġgro an
Ġgro ves
Ġgro ss
ĠIt alians
Ġrec ord
Ġrec over
Ġrec onc
Ġrec iprocal
Ġred oubl
ĠPl at
ĠAir y
Ġsuff icient
ĠOr gan
Ġdev ice
Ġdev ours
Ġarm es
XV I
XV II
XV III
aph im
dom s
Ġ70 0
Ġ80 0
Ġharm onious
Ġfra ught
Ġfur der
Ġdread ed
Ġdread ful
Ġdread full
Ġcast s
ĠSc ot
ĠCom m
ĠCom pos
Ġval iant
Ġchief est
Ġunf ortun
Ġunf inish
Ġbless ings
Ġblack est
Ġdec ay
Ġdec eas
Ġdec ree
Ġdec ides
Ġrid dle
Ġdoubt ful
Al ready
Ġson nets
Ġsist ers
Ġwatch ful
Ġmon ument
Ġmon arch
Ġmus ical
Ġfanc ies
Ġbra ver
Ġter f
Ġter m
Ġter ror
Ġtrou bled
Ġcu p
Ġcru elty
Ġcry stal
ĠIdol atrous
Ġrequ ire
Ġrequ ite
Ġbeg un
ĠAp ril
Ġ12 70
ĠMar gare
Ġvow el
Ġunw ary
Ġunw orth
Ġunw eeting
Ġbliss ful
Ġplay ing
Ġext reme
Ġpray er
Ġpray ers
Ġaffli cted
An no
God dess
SON NET
man s
man uscript
ob son
po int
Ġ90 0
Ġwing ed
Ġob vious
Ġob edience
Ġma i
Ġmo ves
Ġfru its
Ġfru strate
Ġtre mbling
Ġinc essant
Ġinc rease
Ġinc onsisten
Ġinchant er
Ġinchant ed
Ġstran a
ĠCount ry
ĠGra ce
Ġconst ant
aunt ed
Ġ100 0
Ġprof an
Ġprof est
Ġprof ane
Ġview les
AN E
AN S
AR CA
Tw o
Tw ill
Tw ixt
pit ious
Ġing lorious
Ġing rateful
Ġing ratitude
thor ity
Ġsens es
Ġwea ried
Ġmark s
Ġfet ter
Ġdire ct
Ġla vers
Ġinward ly
Ġhair s
Ġhair y
Ġund ert
Ġbend s
Ġfort itude
ĠAn ch
ĠAt tick
ĠHar p
ĠHar binger
ĠHar apha
ĠMon ument
Ġvan ity
umph ing
Ġexp ress
Ġexp iate
Ġprov ok
Ġdispl easure
Ġpret ence
Ġpret ended
Ġprevent ed
Ġjudge ment
Ġwoman s
Ġcorre ct
Ġcorre cted
Ġcorre cts
Ġdiffer ence
IT Y
Per che
Sw ift
aff ad
long s
Ġopp ose
Ġobs erve
Ġfly ing
Ġbar r
Ġbar bar
Ġbur dens
Ġtry al
Ġinst ead
Ġinst inct
Ġinst ructed
sec ond
sec rated
Ġhabit ation
Ġref ra
Ġref resh
ash ion
Ġyield s
Ġyield ed
ĠTri bes
Ġfail ing
Ġdeg ra
Ġdeg ree
Ġdeg ener
Ġ163 4
Ġ163 8
Ġdisc ern
Ġdisc over
Ġdesert s
ĠInf ancy
Ġemph atic
Ġdefence less
mm ed
und ant
Ġve il
Ġwed ded
Ġwit nes
Ġwood s
Ġhur l
rep resent
Ġmal ice
Ġfin al
Ġfro lick
Ġfond ly
Ġdam n
Ġcol ours
Ġlim its
Ġlim bs
Ġpit ch
Ġpun ctu
ĠSph ears
ĠLa wn
ĠHost ile
ĠMag ic
ĠGiant s
rud ging
Ġvol se
Ġchild ren
ĠEl m
Ġlib ertie
Ġblast ed
umm ets
ĠRe ign
ĠThere fore
Ġabs ent
Ġabs ence
Ġabs urd
Ġfool ish
Ġadd rest
Ġcontempt ible
Ġsuffer ings
Ġreason ings
Ġaccept able
Ex pect
Sc arce
her b
ii i
jest y
Ġrow l
Ġsign es
Ġsatisf ie
Ġwrong s
Ġmin or
Ġmut able
Ġmut ual
Ġmist ook
Ġmass y
Ġmov ing
Ġbri de
Ġbri ef
Ġbran ching
Ġbatt ail
Ġdet ra
Ġdri ve
Ġdream s
Ġca us
Ġcool ing
Ġcapt iv
Ġcapt ive
Ġcapt ivity
Ġlament ation
Ġpop ol
Ġpop ular
Ġwher on
Ġwher unto
Ġreceiv ed
Ġbef all
Ġbef riend
asse mbly
ĠAd v
ĠHy dra
ĠCl oud
ĠGent le
ĠBar n
ĠTre es
ĠTre nt
ĠTim bre
ĠEb on
Ġkn ock
Ġdeb as
Ġplant ed
Ġencl in
Ġencl ine
Ġencl os
Ġfoot ing
Ġimb ru
Ġdesp is
Ġdesp air
Ġdescend s
Ġdescend ed
Ġaffect s
Ġsilent ly
Ġmixt ure
Ġdestroy er
Ġpossess ion
Ġindign ation
Ġconstra ins
Ġexcell ence
Ġmedit ation
ĠRelig ious
Ġemphas ize
Ġmurm ur
Can z
De ceiv
Dis p
Ne w
fl uous
fold ed
head ed
press ive
ĠUn ivers
Ġast ray
Ġast onishment
Ġsort s
Ġsigh ing
Ġheal ing
Ġmer it
Ġmer ry
Ġfu el
Ġfix ed
Ġbus ie
Ġbus iness
Ġdw elt
Ġdem ure
Ġdeal t
Ġdanc es
Ġdanc ing
Ġdaint y
Ġdaint ies
Ġlod g
Ġlod ge
Ġhaunt ed
ĠSl ave
ĠSl aves
ĠSat urns
Ġstud ies
ĠPs alms
ĠPip e
ĠPip es
Ġforbid den
Ġash es
ĠGold en
usk ind
Ġspee ches
ĠWom an
ĠWind es
Ġplac es
Ġproph etic
Ġdesc ent
Ġdesc ry
ĠArc ady
ĠArc adia
ĠArm ies
Ġmisch ance
Ġbrook s
Ġwrit ing
Ġcourt eous
Ġcourt esie
Ġtemper ance
Ġtreas on
Ġtreas ure
ĠCyn thia
ĠCyn osure
ĠEnem y
Ġargument s
Ar m
Ben ighted
Dep art
EL L
Fear less
Gu ard
Pl uck
Re gain
Sle ep
Sle ek
Tri p
Tri umphing
War ble
War bl
bre aker
path ize
xx x
ĠZ eb
there fore
Ġsus p
Ġsus pect
Ġwreath s
Ġobl ig
Ġmir acle
Ġmagn anim
Ġfle ecy
Ġber eav
Ġbru is
Ġbount ies
Ġbount eous
Ġtum ult
Ġdea f
Ġdea rest
Ġdang er
Ġcover t
Ġpu o
Ġpath s
anth us
seem ed
seem ly
ĠSy rinx
ĠSen at
ĠSil ence
ĠSever n
ĠServ ants
ĠSepul cher
Ġstar ry
Ġstru ck
Ġstru ct
Ġmeer ly
ĠPR ESENT
ĠPer haps
ĠPaul s
ĠHon our
ĠMat ron
ĠMit re
ĠCont empl
ĠGre en
ĠGree k
Ġvill ager
ĠBl ind
ĠBab e
ĠBeast s
Ġsup reme
Ġchang es
Ġunex pressive
Ġnecess ity
Ġnecess ary
ĠOx ford
ĠEg ypt
ĠEg erton
ĠEx ercise
ĠWe eds
ĠWarri our
Ġfac sim
Ġdecl are
Ġjoin ts
Ġjealous ie
ĠRight eousness
Ġdispos al
Ġdispos ition
Ġimpl ore
Ġprai ers
Ġprefer ring
Ġcontr ary
Ġcheer full
Ġodious ly
Ġfrequent ly
Ġstrict ly
Ġstrict est
Ġpublish ed
ĠTrump ets
Ġacqu aint
Ġtroubl es
Ġmajest y
Ġmajest ick
Ġhurt full
Conf ess
Ġcalam ities
Ġcalam itous
ĠSacri fice
Ġrebell ions
Ġenthron ed
CHE ST
Cont empt
Da ily
Draw s
Gent le
IC K
Night ly
Nymph s
Ph ilist
cin al
maid s
ura ble
Ġz eal
Ġes p
Ġess ence
Ġau thority
Ġav oid
Ġwid ow
Ġhind ers
Ġmeas ur
Ġmag ick
Ġmerc ies
isper ing
Ġfing ers
Ġfut ure
Ġfun er
Ġfright ed
Ġfestiv als
Ġban ish
Ġble ed
Ġburi al
Ġtang l
Ġturb ulent
Ġcens ure
Ġlord ly
Ġpil ed
Ġinfer ior
Ġiniqu ity
Ġgener al
ceed ed
ĠSer aphim
elie ve
rib ution
Ġuph old
Ġsto op
Ġstro ke
Ġstub ble
Ġrecom pense
ĠLo ves
ĠLuc ina
ĠLAT IN
ĠPers ons
ĠPred icament
ĠAG ONIST
ĠAgain st
ĠHes per
ĠHerd s
ĠMa jesty
ĠMAS K
ĠCry stall
ĠCows lips
ĠCoun ce
ĠColl edge
ĠCup id
Ġallow ance
Ġorn ament
Ġvig orous
Ġvap ours
ĠBond age
ĠBac chus
ĠTor ches
ĠTray tor
Ġunsh orn
ĠEth i
ĠEur ope
ĠElys ian
Ġlik est
ĠDa isies
ĠDian a
ĠWis doms
Ġdeceit ful
unk ets
Ġflatter ing
Ġflesh ly
ĠRE A
ĠRob ber
Ġsaf ely
Ġglist ring
Ġargu es
Ġrare ly
Ġamend s
Ġproport ion
Ġprosper ous
Fors ook
Ġclust ring
Ġrum our
Ġimit ated
Ġverd it
Ġgracious ly
Ġprep are
Ġappreh end
Ġremor se
Ġcontin ues
Ġassaul ts
Ġpursu it
Ġimport ant
ĠAmar anthus
Ġcounter feit
Ġembra ce
EST IES
Ġinfli cted
Ġtransl ucent
Ġwritt en
Ġrelie ves
ĠPlut o
Ġinnum erable
Ġunpar allel
Ġexceed ing
Ġsensualt y
Ġvanqu isht
ĠPalest ine
Smo oth
Ġdetermin ing
Ġthreatn ings
Ġcontradi ction
Ġdilig ent
Ġprotect ion
Ang el
Acc ording
Bea uty
Brut us
Cyri ack
Dri ving
Dishon our
EHO VAH
LIS H
Ment re
Pri vate
Reg ard
Sem ichor
cad em
ju gal
Ġ-------------------------------- ---------
Ġ---------------------------- --
Ġthred s
Ġagg ra
Ġsal ute
Ġsand y
Ġsnow y
Ġsym pathize
Ġwrin cled
Ġwip e
Ġhom ely
Ġhudd ling
Ġobt ain
Ġooz y
Ġmaz es
Ġtres pass
enem y
Ġdrou th
Ġdaz ling
Ġcle er
Ġcas es
Ġcun ning
Ġcred ulous
Ġlif etime
Ġlag ging
Ġnau frag
Ġtool s
Ġincid ent
Ġgau dy
ĠSist ers
ĠSec ond
ĠSav age
ĠSorcer er
ĠSanctu ary
Ġstart le
Ġrevel ry
asper ate
Ġmyster ious
ĠLud low
ĠLoc rine
ĠLAW ES
ĠPray ers
ĠAbra ham
ĠAthen ian
ĠAreth use
ĠHind s
ĠMist res
ĠMOR NING
ĠMAI ESTIES
ĠMurther er
ĠCarri er
ĠGard ens
Ġvouch safe
ĠBridge water
Ġspect acle
Ġsubl ime
ĠTab ern
ĠTetra chordon
ĠTIM E
ĠTravail er
ĠFAI R
ĠFestiv al
ĠForest s
Ġchoic est
indic ate
Ġunemph atic
Ġungod ly
ĠOcc asions
ĠEter nity
ĠEuri pides
ĠENG LISH
Ġliken es
Ġblund ers
Ġblasph em
Ġfarew el
ĠNect ar
ospit able
Ġglitter ing
Ġglimmer ing
Ġraig ns
Ġalway es
Ġambit ious
ĠJoll ity
ĠVac ation
Ġperple x
Ġperpet ual
depart ure
Ġdespo il
Ġreprod uces
Ġleggi ad
Shakesp eare
ĠAmbro sial
Unmind full
Ġprivil edge
Ġeminent ly
Ġinvinc ible
Ġunfortun ate
ĠMargare t
SONNET S
Ġbarbar ous
Ġburdens om
Ġpunctu ation
ĠPRESENT ED
ĠContempl ation
CHEST ER
ĠAGONIST ES
