{
  "version": "1.0",
  "truncation": null,
  "padding": null,
  "added_tokens": [
    {
      "id": 0,
      "content": "<s>",
      "single_word": false,
      "lstrip": false,
      "rstrip": false,
      "normalized": false,
      "special": true
    },
    {
      "id": 1,
      "content": "</s>",
      "single_word": false,
      "lstrip": false,
      "rstrip": false,
      "normalized": false,
      "special": true
    },
    {
      "id": 2,
      "content": "<pad>",
      "single_word": false,
      "lstrip": false,
      "rstrip": false,
      "normalized": false,
      "special": true
    },
    {
      "id": 3,
      "content": "<unk>",
      "single_word": false,
      "lstrip": false,
      "rstrip": false,
      "normalized": false,
      "special": true
    },
    {
      "id": 4,
      "content": "<mask>",
      "single_word": false,
      "lstrip": false,
      "rstrip": false,
      "normalized": false,
      "special": true
    }
  ],
  "normalizer": null,
  "pre_tokenizer": {
    "type": "ByteLevel",
    "add_prefix_space": false,
    "trim_offsets": true,
    "use_regex": true
  },
  "post_processor": {
    "type": "ByteLevel",
    "add_prefix_space": true,
    "trim_offsets": false,
    "use_regex": true
  },
  "decoder": {
    "type": "ByteLevel",
    "add_prefix_space": true,
    "trim_offsets": true,
    "use_regex": true
  },
  "model": {
    "type": "BPE",
    "dropout": null,
    "unk_token": null,
    "continuing_subword_prefix": null,
    "end_of_word_suffix": null,
    "fuse_unk": false,
    "byte_fallback": false,
    "ignore_merges": false,
    "vocab": {
      "<s>": 0,
      "</s>": 1,
      "<pad>": 2,
      "<unk>": 3,
      "<mask>": 4,
      "!": 5,
      "\"": 6,
      "#": 7,
      "$": 8,
      "%": 9,
      "&": 10,
      "'": 11,
      "(": 12,
      ")": 13,
      "*": 14,
      "+": 15,
      ",": 16,
      "-": 17,
      ".": 18,
      "/": 19,
      "0": 20,
      "1": 21,
      "2": 22,
      "3": 23,
      "4": 24,
      "5": 25,
      "6": 26,
      "7": 27,
      "8": 28,
      "9": 29,
      ":": 30,
      ";": 31,
      "<": 32,
      "=": 33,
      ">": 34,
      "?": 35,
      "@": 36,
      "A": 37,
      "B": 38,
      "C": 39,
      "D": 40,
      "E": 41,
      "F": 42,
      "G": 43,
      "H": 44,
      "I": 45,
      "J": 46,
      "K": 47,
      "L": 48,
      "M": 49,
      "N": 50,
      "O": 51,
      "P": 52,
      "Q": 53,
      "R": 54,
      "S": 55,
      "T": 56,
      "U": 57,
      "V": 58,
      "W": 59,
      "X": 60,
      "Y": 61,
      "Z": 62,
      "[": 63,
      "\\": 64,
      "]": 65,
      "^": 66,
      "_": 67,
      "`": 68,
      "a": 69,
      "b": 70,
      "c": 71,
      "d": 72,
      "e": 73,
      "f": 74,
      "g": 75,
      "h": 76,
      "i": 77,
      "j": 78,
      "k": 79,
      "l": 80,
      "m": 81,
      "n": 82,
      "o": 83,
      "p": 84,
      "q": 85,
      "r": 86,
      "s": 87,
      "t": 88,
      "u": 89,
      "v": 90,
      "w": 91,
      "x": 92,
      "y": 93,
      "z": 94,
      "{": 95,
      "|": 96,
      "}": 97,
      "~": 98,
      "¡": 99,
      "¢": 100,
      "£": 101,
      "¤": 102,
      "¥": 103,
      "¦": 104,
      "§": 105,
      "¨": 106,
      "©": 107,
      "ª": 108,
      "«": 109,
      "¬": 110,
      "®": 111,
      "¯": 112,
      "°": 113,
      "±": 114,
      "²": 115,
      "³": 116,
      "´": 117,
      "µ": 118,
      "¶": 119,
      "·": 120,
      "¸": 121,
      "¹": 122,
      "º": 123,
      "»": 124,
      "¼": 125,
      "½": 126,
      "¾": 127,
      "¿": 128,
      "À": 129,
      "Á": 130,
      "Â": 131,
      "Ã": 132,
      "Ä": 133,
      "Å": 134,
      "Æ": 135,
      "Ç": 136,
      "È": 137,
      "É": 138,
      "Ê": 139,
      "Ë": 140,
      "Ì": 141,
      "Í": 142,
      "Î": 143,
      "Ï": 144,
      "Ð": 145,
      "Ñ": 146,
      "Ò": 147,
      "Ó": 148,
      "Ô": 149,
      "Õ": 150,
      "Ö": 151,
      "×": 152,
      "Ø": 153,
      "Ù": 154,
      "Ú": 155,
      "Û": 156,
      "Ü": 157,
      "Ý": 158,
      "Þ": 159,
      "ß": 160,
      "à": 161,
      "á": 162,
      "â": 163,
      "ã": 164,
      "ä": 165,
      "å": 166,
      "æ": 167,
      "ç": 168,
      "è": 169,
      "é": 170,
      "ê": 171,
      "ë": 172,
      "ì": 173,
      "í": 174,
      "î": 175,
      "ï": 176,
      "ð": 177,
      "ñ": 178,
      "ò": 179,
      "ó": 180,
      "ô": 181,
      "õ": 182,
      "ö": 183,
      "÷": 184,
      "ø": 185,
      "ù": 186,
      "ú": 187,
      "û": 188,
      "ü": 189,
      "ý": 190,
      "þ": 191,
      "ÿ": 192,
      "Ā": 193,
      "ā": 194,
      "Ă": 195,
      "ă": 196,
      "Ą": 197,
      "ą": 198,
      "Ć": 199,
      "ć": 200,
      "Ĉ": 201,
      "ĉ": 202,
      "Ċ": 203,
      "ċ": 204,
      "Č": 205,
      "č": 206,
      "Ď": 207,
      "ď": 208,
      "Đ": 209,
      "đ": 210,
      "Ē": 211,
      "ē": 212,
      "Ĕ": 213,
      "ĕ": 214,
      "Ė": 215,
      "ė": 216,
      "Ę": 217,
      "ę": 218,
      "Ě": 219,
      "ě": 220,
      "Ĝ": 221,
      "ĝ": 222,
      "Ğ": 223,
      "ğ": 224,
      "Ġ": 225,
      "ġ": 226,
      "Ģ": 227,
      "ģ": 228,
      "Ĥ": 229,
      "ĥ": 230,
      "Ħ": 231,
      "ħ": 232,
      "Ĩ": 233,
      "ĩ": 234,
      "Ī": 235,
      "ī": 236,
      "Ĭ": 237,
      "ĭ": 238,
      "Į": 239,
      "į": 240,
      "İ": 241,
      "ı": 242,
      "Ĳ": 243,
      "ĳ": 244,
      "Ĵ": 245,
      "ĵ": 246,
      "Ķ": 247,
      "ķ": 248,
      "ĸ": 249,
      "Ĺ": 250,
      "ĺ": 251,
      "Ļ": 252,
      "ļ": 253,
      "Ľ": 254,
      "ľ": 255,
      "Ŀ": 256,
      "ŀ": 257,
      "Ł": 258,
      "ł": 259,
      "Ń": 260,
      "ĠĠ": 261,
      "ĠĠĠĠ": 262,
      "čĊ": 263,
      "th": 264,
      "Ġth": 265,
      "ĠĠĠĠĠĠĠĠ": 266,
      "Ġa": 267,
      "in": 268,
      "Ġs": 269,
      "er": 270,
      "nd": 271,
      "Ġw": 272,
      "Ġthe": 273,
      "Ġh": 274,
      "Ġo": 275,
      "re": 276,
      "ou": 277,
      "Ġm": 278,
      "is": 279,
      "Ġf": 280,
      "Ġb": 281,
      "Ġt": 282,
      "es": 283,
      "on": 284,
      "or": 285,
      "at": 286,
      "ll": 287,
      "en": 288,
      "Ġd": 289,
      "ea": 290,
      "ĠĠĠĠĠĠĠĠĠĠĠĠĠĠĠĠ": 291,
      "Ġc": 292,
      "Ġand": 293,
      "Ġl": 294,
      "Ġof": 295,
      "Ġp": 296,
      "Ġn": 297,
      "st": 298,
      "ing": 299,
      "Ġto": 300,
      "--": 301,
      "an": 302,
      "Ġin": 303,
      "Th": 304,
      "ow": 305,
      "ed": 306,
      "om": 307,
      "it": 308,
      "'d": 309,
      "gh": 310,
      "ar": 311,
      "ith": 312,
      "Ġg": 313,
      "ir": 314,
      "ce": 315,
      "le": 316,
      "Ġwh": 317,
      "se": 318,
      "ĠĠĠ": 319,
      "ĠI": 320,
      "ve": 321,
      "And": 322,
      "ch": 323,
      "ot": 324,
      "et": 325,
      "Ġha": 326,
      "ra": 327,
      "ĠS": 328,
      "ut": 329,
      "ght": 330,
      "el": 331,
      "Ġwith": 332,
      "ri": 333,
      "Ġu": 334,
      "Ġsh": 335,
      "ear": 336,
      "----": 337,
      "ld": 338,
      "ere": 339,
      "am": 340,
      "od": 341,
      "Ġst": 342,
      "Ġre": 343,
      "Ġe": 344,
      "al": 345,
      "Ġbe": 346,
      "id": 347,
      "im": 348,
      "ly": 349,
      "ay": 350,
      "ur": 351,
      "Ġthat": 352,
      "Ġhis": 353,
      "Ġthy": 354,
      "ent": 355,
      "as": 356,
      "ver": 357,
      "ro": 358,
      "ion": 359,
      "ad": 360,
      "Ġmy": 361,
      "Ġon": 362,
      "Ġme": 363,
      "Ġnot": 364,
      "Ġy": 365,
      "ĠL": 366,
      "Wh": 367,
      "ill": 368,
      "Ġthou": 369,
      "est": 370,
      "The": 371,
      "il": 372,
      "ain": 373,
      "our": 374,
      "ĠP": 375,
      "Ġfor": 376,
      "ĠA": 377,
      "Ġ1": 378,
      "ight": 379,
      "ĠH": 380,
      "all": 381,
      "ĠM": 382,
      "Ġas": 383,
      "ore": 384,
      "ĠC": 385,
      "ĠĠĠĠĠĠĠĠĠĠĠĠĠĠĠĠĠĠĠĠĠĠĠĠ": 386,
      "Ġall": 387,
      "rom": 388,
      "To": 389,
      "ous": 390,
      "ess": 391,
      "ck": 392,
      "ĠG": 393,
      "Ġor": 394,
      "Ġis": 395,
      "ge": 396,
      "ee": 397,
      "ru": 398,
      "Ġv": 399,
      "ct": 400,
      "if": 401,
      "Ġso": 402,
      "ĠB": 403,
      "ers": 404,
      "us": 405,
      "Ġher": 406,
      "Ġsp": 407,
      "Ġthee": 408,
      "Ġit": 409,
      "rou": 410,
      "ord": 411,
      "--------": 412,
      "Ġsu": 413,
      "ast": 414,
      "Ġfrom": 415,
      "ĠĠĠĠĠĠĠĠĠĠĠĠĠĠĠĠĠĠĠĠ": 416,
      "Of": 417,
      "ĠT": 418,
      "ke": 419,
      "Ġthis": 420,
      "ell": 421,
      "ong": 422,
      "ĠF": 423,
      "res": 424,
      "nt": 425,
      "Ġat": 426,
      "Ġch": 427,
      "ie": 428,
      "ther": 429,
      "Ġby": 430,
      "em": 431,
      "ind": 432,
      "ine": 433,
      "ant": 434,
      "ould": 435,
      "Ġun": 436,
      "Ġhe": 437,
      "ood": 438,
      "Ġne": 439,
      "Ġno": 440,
      "'s": 441,
      "That": 442,
      "ist": 443,
      "ich": 444,
      "ose": 445,
      "ĠO": 446,
      "ph": 447,
      "ĠE": 448,
      "and": 449,
      "With": 450,
      "ble": 451,
      "ate": 452,
      "Ġtheir": 453,
      "Ġlo": 454,
      "pt": 455,
      "Ġhave": 456,
      "Ġhim": 457,
      "qu": 458,
      "Ġk": 459,
      "Ġcom": 460,
      "Ġli": 461,
      "Ġwas": 462,
      "Ġdo": 463,
      "ng": 464,
      "Ġbl": 465,
      "But": 466,
      "ol": 467,
      "Ġthem": 468,
      "ul": 469,
      "ĠD": 470,
      "Ġbut": 471,
      "ence": 472,
      "end": 473,
      "Ġcon": 474,
      "ic": 475,
      "ter": 476,
      "um": 477,
      "In": 478,
      "ise": 479,
      "ust": 480,
      "ĠW": 481,
      "Ġfa": 482,
      "Ġde": 483,
      "ĠGod": 484,
      "pp": 485,
      "ame": 486,
      "ies": 487,
      "ard": 488,
      "Ġthen": 489,
      "row": 490,
      "Ġthey": 491,
      "Ġpl": 492,
      "ort": 493,
      "eav": 494,
      "un": 495,
      "iv": 496,
      "old": 497,
      "ure": 498,
      "Ġshall": 499,
      "Ġwhat": 500,
      "ost": 501,
      "Ġj": 502,
      "Ġfl": 503,
      "Ġnow": 504,
      "Ġwho": 505,
      "Ġsom": 506,
      "ious": 507,
      "ĠN": 508,
      "ish": 509,
      "ĠR": 510,
      "Ġhear": 511,
      "ead": 512,
      "Ġup": 513,
      "os": 514,
      "Ġwill": 515,
      "Ġsa": 516,
      "Ġwhich": 517,
      "Ġan": 518,
      "Ġmore": 519,
      "ĠTh": 520,
      "au": 521,
      "Ġse": 522,
      "Ġour": 523,
      "op": 524,
      "ok": 525,
      "ring": 526,
      "ound": 527,
      "Or": 528,
      "igh": 529,
      "ile": 530,
      "ull": 531,
      "Ġthir": 532,
      "ation": 533,
      "Ġare": 534,
      "orn": 535,
      "ĠĠĠĠĠĠĠĠĠĠĠĠĠĠĠĠĠĠĠĠĠĠĠĠĠĠĠĠ": 536,
      "Ġgl": 537,
      "Ġstre": 538,
      "ĠLord": 539,
      "Ġwor": 540,
      "Ġshe": 541,
      "Ġman": 542,
      "Ġus": 543,
      "now": 544,
      "Ġar": 545,
      "Ġmay": 546,
      "ity": 547,
      "Ġex": 548,
      "Ġyou": 549,
      "out": 550,
      "ire": 551,
      "Ġra": 552,
      "Ġif": 553,
      "Ġal": 554,
      "ig": 555,
      "Ġam": 556,
      "eas": 557,
      "Ġgre": 558,
      "Ġ10": 559,
      "'t": 560,
      "ick": 561,
      "----------------": 562,
      "ive": 563,
      "ran": 564,
      "Ġsw": 565,
      "Ġen": 566,
      "ĠAnd": 567,
      "Ġhad": 568,
      "Ġ16": 569,
      "ak": 570,
      "ath": 571,
      "are": 572,
      "oth": 573,
      "rin": 574,
      "Ġpro": 575,
      "ide": 576,
      "ond": 577,
      "ry": 578,
      "eep": 579,
      "ab": 580,
      "fore": 581,
      "ice": 582,
      "Ġhath": 583,
      "ted": 584,
      "ue": 585,
      "ns": 586,
      "Ġab": 587,
      "ings": 588,
      "Ġwhere": 589,
      "For": 590,
      "Ġsee": 591,
      "Ġcl": 592,
      "ake": 593,
      "Ġru": 594,
      "ount": 595,
      "Ġcan": 596,
      "Ġout": 597,
      "ect": 598,
      "oy": 599,
      "ud": 600,
      "ĠJ": 601,
      "Ġear": 602,
      "ert": 603,
      "Ġever": 604,
      "Ġyet": 605,
      "20": 606,
      "ff": 607,
      "gain": 608,
      "ĠV": 609,
      "Ġri": 610,
      "Ġyour": 611,
      "ag": 612,
      "Ġdis": 613,
      "ĠĠĠĠĠĠĠĠĠĠĠĠĠĠĠĠĠĠĠĠĠĠĠĠĠĠĠĠĠĠĠĠ": 614,
      "rough": 615,
      "Ġhigh": 616,
      "As": 617,
      "ove": 618,
      "ves": 619,
      "Ġthere": 620,
      "nder": 621,
      "Ġper": 622,
      "ark": 623,
      "elf": 624,
      "pl": 625,
      "ts": 626,
      "wn": 627,
      "ass": 628,
      "uch": 629,
      "Ġfo": 630,
      "ĠHeav": 631,
      "Ġsuch": 632,
      "ac": 633,
      "age": 634,
      "Ġdid": 635,
      "bl": 636,
      "Ġ*": 637,
      "Ġqu": 638,
      "Ġself": 639,
      "Ġwe": 640,
      "ons": 641,
      "Ġday": 642,
      "ance": 643,
      "Ġgood": 644,
      "Ġhand": 645,
      "Ġknow": 646,
      "ĠThe": 647,
      "ness": 648,
      "Ġthese": 649,
      "one": 650,
      "to": 651,
      "ap": 652,
      "he": 653,
      "ms": 654,
      "Ġim": 655,
      "Ġwould": 656,
      "Ġhow": 657,
      "Ġhere": 658,
      "Ġfir": 659,
      "Ġtru": 660,
      "Ġoff": 661,
      "cc": 662,
      "eld": 663,
      "30": 664,
      "eet": 665,
      "ngth": 666,
      "40": 667,
      "Sam": 668,
      "ft": 669,
      "Ġsl": 670,
      "Ġmight": 671,
      "ĠĠĠĠĠĠĠĠĠĠĠĠĠĠĠĠĠĠĠĠĠĠĠĠĠĠĠĠĠĠĠĠĠĠĠĠ": 672,
      "Ġwhen": 673,
      "ĠĠĠĠĠĠĠĠĠĠĠĠĠĠĠĠĠĠĠĠĠĠĠĠĠ": 674,
      "Ġstrength": 675,
      "Ġgreat": 676,
      "Ġver": 677,
      "Ġown": 678,
      "eath": 679,
      "ite": 680,
      "sel": 681,
      "Ġhast": 682,
      "ilt": 683,
      "ian": 684,
      "oul": 685,
      "ime": 686,
      "urn": 687,
      "Ġlike": 688,
      "ree": 689,
      "Ġlong": 690,
      "ears": 691,
      "ife": 692,
      "II": 693,
      "ful": 694,
      "ks": 695,
      "Ġthrough": 696,
      "Ġother": 697,
      "Ġmen": 698,
      "own": 699,
      "ower": 700,
      "Where": 701,
      "ĠCh": 702,
      "50": 703,
      "ON": 704,
      "ace": 705,
      "de": 706,
      "Ġ(": 707,
      "Ġwere": 708,
      "art": 709,
      "Ġye": 710,
      "What": 711,
      "round": 712,
      "Ch": 713,
      "ild": 714,
      "Ġway": 715,
      "Ġpra": 716,
      "ade": 717,
      "ress": 718,
      "able": 719,
      "ip": 720,
      "ment": 721,
      "ne": 722,
      "sh": 723,
      "Ġad": 724,
      "Ġsc": 725,
      "its": 726,
      "'re": 727,
      "Yet": 728,
      "ward": 729,
      "Ġro": 730,
      "Ġser": 731,
      "Ġbre": 732,
      "Thou": 733,
      "ely": 734,
      "Not": 735,
      "aw": 736,
      "ave": 737,
      "Ġthose": 738,
      "Ġdes": 739,
      "eal": 740,
      "Ġlet": 741,
      "ition": 742,
      "Ġ6": 743,
      "Ġwell": 744,
      "red": 745,
      "Who": 746,
      "Ġfirst": 747,
      "From": 748,
      "Ġset": 749,
      "Ġold": 750,
      "Ġdel": 751,
      "east": 752,
      "Ġlight": 753,
      "Ġgra": 754,
      "Ġshould": 755,
      "Ġey": 756,
      "Ġone": 757,
      "Ġsome": 758,
      "10": 759,
      "70": 760,
      "My": 761,
      "ack": 762,
      "Ġword": 763,
      "Ġhon": 764,
      "Ġmust": 765,
      "Ġmost": 766,
      "Ġdark": 767,
      "Ġnight": 768,
      "Ġthought": 769,
      "Ġfair": 770,
      "He": 771,
      "His": 772,
      "az": 773,
      "ep": 774,
      "xt": 775,
      "ĠĠĠĠĠĠĠ": 776,
      "oud": 777,
      "Ġbest": 778,
      "llow": 779,
      "Ġpre": 780,
      "Which": 781,
      "80": 782,
      "So": 783,
      "ail": 784,
      "li": 785,
      "less": 786,
      "son": 787,
      "Ġagain": 788,
      "read": 789,
      "eak": 790,
      "Then": 791,
      "ĠSt": 792,
      "Ġdoth": 793,
      "ause": 794,
      "By": 795,
      "ber": 796,
      "ock": 797,
      "Ġsm": 798,
      "ome": 799,
      "Ġend": 800,
      "gin": 801,
      "Ġhead": 802,
      "ens": 803,
      "ean": 804,
      "Ġlast": 805,
      "Ġoft": 806,
      "Ġbefore": 807,
      "Ġonce": 808,
      "Ġupon": 809,
      "ign": 810,
      "90": 811,
      "full": 812,
      "of": 813,
      "Ġapp": 814,
      "Ġtw": 815,
      "Ġtri": 816,
      "ang": 817,
      "Ġwhile": 818,
      "Ġstill": 819,
      "Ġnever": 820,
      "Ġart": 821,
      "les": 822,
      "ov": 823,
      "per": 824,
      "Ġover": 825,
      "eace": 826,
      "Ġcall": 827,
      "Ġev": 828,
      "ĠĠĠĠĠĠĠĠĠĠĠĠĠĠĠĠĠĠĠĠĠ": 829,
      "ortal": 830,
      "Ġsec": 831,
      "Ġglor": 832,
      "Chor": 833,
      "iver": 834,
      "ss": 835,
      "ĠK": 836,
      "Ġ20": 837,
      "Ġmuch": 838,
      "iss": 839,
      "Ġfound": 840,
      "Ġlife": 841,
      "itt": 842,
      "Ġgu": 843,
      "right": 844,
      "riend": 845,
      "Ġunder": 846,
      "Ġrem": 847,
      "When": 848,
      "ains": 849,
      "Ġcont": 850,
      "On": 851,
      "ier": 852,
      "erd": 853,
      "Ġpower": 854,
      "anc": 855,
      "Ġinto": 856,
      "eds": 857,
      "ĠIn": 858,
      "Ġrep": 859,
      "ĠĠĠĠĠĠĠĠĠĠĠĠĠĠĠĠĠĠĠĠĠĠĠĠĠĠ": 860,
      "ĠĠĠĠĠĠĠĠĠĠĠĠĠĠĠĠĠĠĠĠĠĠĠ": 861,
      "ale": 862,
      "cri": 863,
      "ec": 864,
      "ron": 865,
      "ym": 866,
      "Ġea": 867,
      "ĠTo": 868,
      "Ġsing": 869,
      "ern": 870,
      "Ġwithout": 871,
      "Ġres": 872,
      "Ġthough": 873,
      "Ġlove": 874,
      "Ġjust": 875,
      "aught": 876,
      "Ġhonour": 877,
      "av": 878,
      "fter": 879,
      "ook": 880,
      "Ġboth": 881,
      "Ġpo": 882,
      "Ġpres": 883,
      "Ġread": 884,
      "ĠPh": 885,
      "ĠAr": 886,
      "ĠĠĠĠĠĠĠĠĠĠĠĠĠĠĠĠĠĠĠĠĠĠĠĠĠĠĠ": 887,
      "Ġsweet": 888,
      "Ġ&": 889,
      "Ġfe": 890,
      "Ġle": 891,
      "Ġnor": 892,
      "This": 893,
      "Ġrest": 894,
      "ours": 895,
      "ĠBro": 896,
      "ris": 897,
      "Ġ2": 898,
      "Ġfind": 899,
      "Ġdeath": 900,
      "Ġdown": 901,
      "Ġgive": 902,
      "Ġwhom": 903,
      "Ġspell": 904,
      "ĠĠĠĠĠĠĠĠĠĠĠĠĠĠĠĠĠĠĠĠĠĠ": 905,
      "Ġcomm": 906,
      "cl": 907,
      "fe": 908,
      "ield": 909,
      "ple": 910,
      "Ġed": 911,
      "ines": 912,
      "Ġho": 913,
      "Ġmis": 914,
      "Ġbring": 915,
      "Ġtime": 916,
      "ute": 917,
      "rought": 918,
      "Ġkeep": 919,
      "Ġcome": 920,
      "rown": 921,
      "HE": 922,
      "How": 923,
      "Man": 924,
      "aid": 925,
      "be": 926,
      "ia": 927,
      "ial": 928,
      "oice": 929,
      "rong": 930,
      "Ġmade": 931,
      "Ġbet": 932,
      "arm": 933,
      "rag": 934,
      "ĠSon": 935,
      "ĠSam": 936,
      "aint": 937,
      "Ġatt": 938,
      "Ġnew": 939,
      "ope": 940,
      "rans": 941,
      "Be": 942,
      "wh": 943,
      "Ġround": 944,
      "Ġmind": 945,
      "Ġfar": 946,
      "Ġbro": 947,
      "Ġcould": 948,
      "Ġgo": 949,
      "ady": 950,
      "Ġass": 951,
      "ction": 952,
      "Ġsoon": 953,
      "ĠFa": 954,
      "Ġlive": 955,
      "ĠSamson": 956,
      "If": 957,
      "use": 958,
      "int": 959,
      "Ġsin": 960,
      "ough": 961,
      "Ġpart": 962,
      "Ġpeace": 963,
      "Ġname": 964,
      "Thy": 965,
      "ray": 966,
      "ĠShe": 967,
      "Ġret": 968,
      "empt": 969,
      "Ġplace": 970,
      "self": 971,
      "Ġwords": 972,
      "Sh": 973,
      "bs": 974,
      "fer": 975,
      "Ġ4": 976,
      "ins": 977,
      "Ġmake": 978,
      "Ġfull": 979,
      "Ġfree": 980,
      "Ġtra": 981,
      "Ġdiv": 982,
      "Ġpur": 983,
      "Ġpass": 984,
      "Ġtoo": 985,
      "Ġgod": 986,
      "ĠSp": 987,
      "alt": 988,
      "ĠBut": 989,
      "Ġjoy": 990,
      "Ġmany": 991,
      "Ġimp": 992,
      "Ġeach": 993,
      "Sp": 994,
      "ef": 995,
      "ning": 996,
      "oc": 997,
      "Ġent": 998,
      "Ġsay": 999,
      "Ġsight": 1000,
      "ated": 1001,
      "ease": 1002,
      "Ġlow": 1003,
      "ĠIs": 1004,
      "ets": 1005,
      "els": 1006,
      "Ġbeen": 1007,
      "Ġonly": 1008,
      "ĠAm": 1009,
      "pherd": 1010,
      "Ġearth": 1011,
      "Ġright": 1012,
      "ĠPhil": 1013,
      "ĠShepherd": 1014,
      "At": 1015,
      "Qu": 1016,
      "Un": 1017,
      "gg": 1018,
      "ject": 1019,
      "led": 1020,
      "ures": 1021,
      "Ġr": 1022,
      "the": 1023,
      "Ġaff": 1024,
      "ink": 1025,
      "Ġfear": 1026,
      "eng": 1027,
      "ows": 1028,
      "ars": 1029,
      "ither": 1030,
      "lem": 1031,
      "ĠSh": 1032,
      "ĠSun": 1033,
      "Ġheard": 1034,
      "Ġevery": 1035,
      "Ġagainst": 1036,
      "cript": 1037,
      "60": 1038,
      "73": 1039,
      "Nor": 1040,
      "for": 1041,
      "other": 1042,
      "Ġ30": 1043,
      "Ġ40": 1044,
      "thing": 1045,
      "Ġacc": 1046,
      "Ġsil": 1047,
      "Ġwa": 1048,
      "Ġwind": 1049,
      "Ġhu": 1050,
      "Ġmortal": 1051,
      "Ġfriend": 1052,
      "Ġbright": 1053,
      "atch": 1054,
      "Ġdou": 1055,
      "Ġless": 1056,
      "Ġpe": 1057,
      "Ġprin": 1058,
      "Ġint": 1059,
      "irth": 1060,
      "Ġwhose": 1061,
      "Ġrev": 1062,
      "Ġbeh": 1063,
      "imes": 1064,
      "ift": 1065,
      "oss": 1066,
      "Ġserv": 1067,
      "Ġedition": 1068,
      "No": 1069,
      "XX": 1070,
      "ily": 1071,
      "nes": 1072,
      "Ġ5": 1073,
      "Ġ8": 1074,
      "Ġ9": 1075,
      "ĠOf": 1076,
      "Ġage": 1077,
      "Ġsoul": 1078,
      "Ġhum": 1079,
      "Ġheav": 1080,
      "oun": 1081,
      "Ġfal": 1082,
      "Ġdi": 1083,
      "Ġdeep": 1084,
      "Ġcount": 1085,
      "Ġpri": 1086,
      "ĠPo": 1087,
      "nto": 1088,
      "Ġlook": 1089,
      "ĠWood": 1090,
      "ĠThy": 1091,
      "Ġvert": 1092,
      "Ġpraise": 1093,
      "Ġeyes": 1094,
      "lemn": 1095,
      "SA": 1096,
      "Till": 1097,
      "ces": 1098,
      "ike": 1099,
      "me": 1100,
      "not": 1101,
      "ving": 1102,
      "Ġ3": 1103,
      "Ġ7": 1104,
      "Ġaw": 1105,
      "Ġsor": 1106,
      "Ġsur": 1107,
      "ouse": 1108,
      "ouch": 1109,
      "Ġfall": 1110,
      "Ġtill": 1111,
      "Ġcare": 1112,
      "irgin": 1113,
      "rid": 1114,
      "Ġem": 1115,
      "ions": 1116,
      "ĠLady": 1117,
      "ĠHer": 1118,
      "ĠMan": 1119,
      "Ġvis": 1120,
      "ĠFor": 1121,
      "Ġneed": 1122,
      "Ġcons": 1123,
      "ĠĠĠĠĠĠĠĠĠĠĠĠĠĠĠĠĠĠĠĠĠĠĠĠĠĠĠĠĠ": 1124,
      "ĠLords": 1125,
      "Ġwork": 1126,
      "--------------------------------": 1127,
      "Ġ164": 1128,
      "Ġtrue": 1129,
      "ilton": 1130,
      "ĠPhilist": 1131,
      "All": 1132,
      "Com": 1133,
      "ES": 1134,
      "St": 1135,
      "Such": 1136,
      "den": 1137,
      "ev": 1138,
      "ience": 1139,
      "ĠThat": 1140,
      "ĠWith": 1141,
      "Ġthus": 1142,
      "Ġweak": 1143,
      "reat": 1144,
      "Ġmi": 1145,
      "Ġmine": 1146,
      "ont": 1147,
      "Ġdra": 1148,
      "Ġdear": 1149,
      "Ġcame": 1150,
      "Ġcause": 1151,
      "ary": 1152,
      "ĠSong": 1153,
      "elt": 1154,
      "alk": 1155,
      "ĠPar": 1156,
      "Ġconf": 1157,
      "rows": 1158,
      "ople": 1159,
      "Ġ1673": 1160,
      "akes": 1161,
      "Ġabout": 1162,
      "Ġseek": 1163,
      "ertain": 1164,
      "Ġhands": 1165,
      "aps": 1166,
      "ittle": 1167,
      "ĠIsra": 1168,
      "Had": 1169,
      "air": 1170,
      "ase": 1171,
      "haps": 1172,
      "mit": 1173,
      "og": 1174,
      "over": 1175,
      "rous": 1176,
      "ubl": 1177,
      "Ġ'": 1178,
      "Ġere": 1179,
      "Ġ50": 1180,
      "Ġthings": 1181,
      "Ġafter": 1182,
      "Ġsad": 1183,
      "Ġwond": 1184,
      "Ġhold": 1185,
      "ret": 1186,
      "Ġbrought": 1187,
      "ory": 1188,
      "Ġdist": 1189,
      "Ġlea": 1190,
      "Ġinf": 1191,
      "There": 1192,
      "Ġmee": 1193,
      "While": 1194,
      "Ġforce": 1195,
      "ĠAl": 1196,
      "ĠMilton": 1197,
      "Ġvi": 1198,
      "Ġsolemn": 1199,
      "Ġsupp": 1200,
      "ief": 1201,
      "ĠEar": 1202,
      "Ġcomp": 1203,
      "Ġpleas": 1204,
      "Ġflow": 1205,
      "Ġany": 1206,
      "Ġstream": 1207,
      "Ġeye": 1208,
      "Ġspelling": 1209,
      "Ġgods": 1210,
      "Now": 1211,
      "bt": 1212,
      "eed": 1213,
      "ient": 1214,
      "ible": 1215,
      "ling": 1216,
      "oll": 1217,
      "so": 1218,
      "well": 1219,
      "erc": 1220,
      "Ġhope": 1221,
      "ren": 1222,
      "ense": 1223,
      "Ġdead": 1224,
      "ĠĠĠĠĠĠĠĠĠĠĠĠĠĠĠĠĠĠĠ": 1225,
      "Ġpers": 1226,
      "Ġpure": 1227,
      "Ġnat": 1228,
      "Ġgold": 1229,
      "ides": 1230,
      "ades": 1231,
      "Ġforth": 1232,
      "uscript": 1233,
      "ĠTHE": 1234,
      "ĠNation": 1235,
      "Ġheart": 1236,
      "ĠVirgin": 1237,
      "new": 1238,
      "Ġdelight": 1239,
      "Ġtwo": 1240,
      "ymph": 1241,
      "Ġleft": 1242,
      "ength": 1243,
      "Ġpeople": 1244,
      "SAL": 1245,
      "ĠIsrael": 1246,
      "She": 1247,
      "Was": 1248,
      "eb": 1249,
      "eh": 1250,
      "ub": 1251,
      "uous": 1252,
      "Ġill": 1253,
      "Ġsound": 1254,
      "Ġwar": 1255,
      "Ġwant": 1256,
      "rest": 1257,
      "Ġbes": 1258,
      "Ġbid": 1259,
      "att": 1260,
      "Ġlear": 1261,
      "Ġlittle": 1262,
      "Ġlength": 1263,
      "Ġpar": 1264,
      "Thir": 1265,
      "Ġgri": 1266,
      "Ġshame": 1267,
      "Ġstra": 1268,
      "Ġstate": 1269,
      "alm": 1270,
      "ĠLaw": 1271,
      "They": 1272,
      "ĠAs": 1273,
      "cks": 1274,
      "Ġvoice": 1275,
      "Ġche": 1276,
      "Ġchan": 1277,
      "Ġnothing": 1278,
      "ands": 1279,
      "Ġhimself": 1280,
      "Ġdef": 1281,
      "Ġjud": 1282,
      "ĠĠĠĠĠĠĠĠĠĠĠĠĠĠĠĠĠĠĠĠĠĠĠĠĠĠĠĠĠĠ": 1283,
      "Ġyouth": 1284,
      "Ġenem": 1285,
      "ĠĠĠĠĠĠĠĠĠĠĠĠĠĠĠĠĠĠĠĠĠĠĠĠĠĠĠĠĠĠĠĠĠĠ": 1286,
      "Ġfollow": 1287,
      "Though": 1288,
      "Ġ60": 1289,
      "PSAL": 1290,
      "com": 1291,
      "ix": 1292,
      "iz": 1293,
      "ied": 1294,
      "ls": 1295,
      "most": 1296,
      "pos": 1297,
      "ught": 1298,
      "with": 1299,
      "Ġi": 1300,
      "thers": 1301,
      "ĠĠĠĠĠĠĠĠĠĠĠĠ": 1302,
      "Ġang": 1303,
      "Ġsit": 1304,
      "Ġwom": 1305,
      "Ġwand": 1306,
      "Ġhel": 1307,
      "Ġhouse": 1308,
      "outh": 1309,
      "ought": 1310,
      "Ġtell": 1311,
      "Ġtears": 1312,
      "Ġtrans": 1313,
      "Ġda": 1314,
      "ĠĠĠĠĠĠĠĠĠĠĠĠĠĠĠĠĠĠĠĠĠĠĠĠĠĠĠĠĠĠĠĠĠĠĠĠĠĠĠĠ": 1315,
      "Ġcor": 1316,
      "Ġlay": 1317,
      "Ġloud": 1318,
      "Ġinter": 1319,
      "Ġgiv": 1320,
      "Ġground": 1321,
      "cept": 1322,
      "Ġhas": 1323,
      "Ġwithin": 1324,
      "Ġuse": 1325,
      "ament": 1326,
      "ĠPrin": 1327,
      "ĠAu": 1328,
      "ĠCam": 1329,
      "Ġvain": 1330,
      "Ġlies": 1331,
      "ult": 1332,
      "une": 1333,
      "Ġshew": 1334,
      "Ġamong": 1335,
      "Ġgreen": 1336,
      "------------------------": 1337,
      "III": 1338,
      "ilde": 1339,
      "Ġadv": 1340,
      "Ġserve": 1341,
      "Ġsmo": 1342,
      "Ġevil": 1343,
      "Ġglory": 1344,
      "Ġholy": 1345,
      "Ġdivine": 1346,
      "Ġfalse": 1347,
      "16": 1348,
      "Am": 1349,
      "Again": 1350,
      "Co": 1351,
      "Har": 1352,
      "ah": 1353,
      "ach": 1354,
      "ether": 1355,
      "ib": 1356,
      "ool": 1357,
      "ps": 1358,
      "pect": 1359,
      "uri": 1360,
      "Ġeas": 1361,
      "Ġthine": 1362,
      "Ġthink": 1363,
      "Ġside": 1364,
      "Ġwis": 1365,
      "Ġocc": 1366,
      "rew": 1367,
      "Ġmet": 1368,
      "Ġmorn": 1369,
      "Ġmean": 1370,
      "Ġfill": 1371,
      "Ġfore": 1372,
      "Ġfoul": 1373,
      "Ġbo": 1374,
      "Ġbea": 1375,
      "Ġbed": 1376,
      "ater": 1377,
      "atter": 1378,
      "ĠĠĠĠĠĠĠĠĠĠĠĠĠĠĠĠĠĠ": 1379,
      "Ġlead": 1380,
      "Ġlab": 1381,
      "ane": 1382,
      "ank": 1383,
      "Ġgave": 1384,
      "ceiv": 1385,
      "Ġhapp": 1386,
      "ĠSo": 1387,
      "ĠSw": 1388,
      "Whom": 1389,
      "ĠPri": 1390,
      "ĠPro": 1391,
      "ĠMus": 1392,
      "eem": 1393,
      "cted": 1394,
      "Ġspir": 1395,
      "Ġspeed": 1396,
      "Ġsub": 1397,
      "aste": 1398,
      "resh": 1399,
      "Ġchar": 1400,
      "Ġunc": 1401,
      "Ġlost": 1402,
      "Ġdost": 1403,
      "Ġblind": 1404,
      "Ġfav": 1405,
      "ĠThis": 1406,
      "Ġworth": 1407,
      "Ġworld": 1408,
      "Ġcloud": 1409,
      "Ġrun": 1410,
      "agon": 1411,
      "Ġperf": 1412,
      "Ġfoes": 1413,
      "aze": 1414,
      "ĠStar": 1415,
      "ocks": 1416,
      "Ġappear": 1417,
      "Ġglorious": 1418,
      "aughter": 1419,
      "Ġpresent": 1420,
      "Ġreads": 1421,
      "ĠEarth": 1422,
      "Ġchange": 1423,
      "Her": 1424,
      "IN": 1425,
      "It": 1426,
      "La": 1427,
      "OR": 1428,
      "Will": 1429,
      "apt": 1430,
      "cred": 1431,
      "ever": 1432,
      "iant": 1433,
      "mp": 1434,
      "oin": 1435,
      "oes": 1436,
      "wer": 1437,
      "Ġant": 1438,
      "Ġsk": 1439,
      "Ġsle": 1440,
      "erv": 1441,
      "Ġwr": 1442,
      "Ġwalk": 1443,
      "Ġhar": 1444,
      "Ġod": 1445,
      "rey": 1446,
      "Ġfre": 1447,
      "Ġfire": 1448,
      "Ġbow": 1449,
      "Ġbel": 1450,
      "ĠĠĠĠĠĠĠĠĠĠĠĠĠĠĠĠĠ": 1451,
      "Ġline": 1452,
      "Ġins": 1453,
      "arri": 1454,
      "Ġgent": 1455,
      "ott": 1456,
      "ames": 1457,
      "Ġstri": 1458,
      "ĠLy": 1459,
      "Their": 1460,
      "Ġforg": 1461,
      "ĠMo": 1462,
      "cts": 1463,
      "ems": 1464,
      "Ġdeeds": 1465,
      "Ġwhole": 1466,
      "Ġsave": 1467,
      "Ġalone": 1468,
      "Ġdidst": 1469,
      "Ġtruth": 1470,
      "Ġtrust": 1471,
      "ĠĠĠĠĠĠĠĠĠĠĠĠĠĠĠĠĠĠĠĠĠĠĠĠĠĠĠĠĠĠĠĠĠĠĠĠĠ": 1472,
      "ĠĠĠĠĠĠĠĠĠĠĠĠĠĠĠĠĠĠĠĠĠĠĠĠĠĠĠĠĠĠĠĠĠĠĠĠĠĠ": 1473,
      "Ġbreath": 1474,
      "ĠKing": 1475,
      "rison": 1476,
      "Ġ1645": 1477,
      "Ab": 1478,
      "EN": 1479,
      "ER": 1480,
      "app": 1481,
      "dol": 1482,
      "ex": 1483,
      "joy": 1484,
      "mer": 1485,
      "ned": 1486,
      "rat": 1487,
      "rod": 1488,
      "uc": 1489,
      "yr": 1490,
      "ĠWh": 1491,
      "Ġrou": 1492,
      "Ġsent": 1493,
      "ery": 1494,
      "Ġwise": 1495,
      "Ġwick": 1496,
      "Ġhard": 1497,
      "Ġop": 1498,
      "Ġbound": 1499,
      "Ġback": 1500,
      "Ġturn": 1501,
      "Ġtouch": 1502,
      "ors": 1503,
      "orous": 1504,
      "orious": 1505,
      "Ġdro": 1506,
      "Ġdwell": 1507,
      "Ġlist": 1508,
      "Ġput": 1509,
      "Ġnum": 1510,
      "chant": 1511,
      "ett": 1512,
      "ĠSons": 1513,
      "Ġshalt": 1514,
      "Ġstood": 1515,
      "Ġstep": 1516,
      "adise": 1517,
      "ĠLove": 1518,
      "Ġsoft": 1519,
      "roud": 1520,
      "Ġsure": 1521,
      "ĠTrag": 1522,
      "ĠFl": 1523,
      "Ġnoise": 1524,
      "ĠDagon": 1525,
      "ended": 1526,
      "ĠĠĠĠĠĠĠĠĠĠĠĠĠĠĠĠĠĠĠĠĠĠĠĠĠĠĠĠĠĠĠ": 1527,
      "Ġrather": 1528,
      "easure": 1529,
      "Ġabove": 1530,
      "Ġperhaps": 1531,
      "Ġimm": 1532,
      "ĠĠĠĠĠĠĠĠĠĠĠĠĠĠĠĠĠĠĠĠĠĠĠĠĠĠĠĠĠĠĠĠĠĠĠĠĠĠĠ": 1533,
      "Ġbreak": 1534,
      "Note": 1535,
      "Ġthoughts": 1536,
      "Ġbetter": 1537,
      "ĠCamb": 1538,
      "AT": 1539,
      "Like": 1540,
      "May": 1541,
      "act": 1542,
      "cid": 1543,
      "ey": 1544,
      "eous": 1545,
      "ext": 1546,
      "gu": 1547,
      "ges": 1548,
      "iest": 1549,
      "ixt": 1550,
      "oom": 1551,
      "ole": 1552,
      "rate": 1553,
      "sp": 1554,
      "swer": 1555,
      "ĠU": 1556,
      "Ġer": 1557,
      "Ġest": 1558,
      "Ġair": 1559,
      "Ġwra": 1560,
      "Ġwilt": 1561,
      "Ġheld": 1562,
      "Ġhome": 1563,
      "Ġmod": 1564,
      "Ġmid": 1565,
      "Ġfell": 1566,
      "Ġfeet": 1567,
      "Ġfier": 1568,
      "Ġbu": 1569,
      "Ġbold": 1570,
      "Ġtend": 1571,
      "ese": 1572,
      "Ġdest": 1573,
      "Ġdif": 1574,
      "ĠĠĠĠĠĠĠĠĠĠĠĠĠĠĠĠĠĠĠĠĠĠĠĠĠĠĠĠĠĠĠĠĠĠĠĠĠĠĠĠĠ": 1575,
      "Ġcour": 1576,
      "Ġcertain": 1577,
      "Ġlate": 1578,
      "Ġlaw": 1579,
      "Ġpast": 1580,
      "Ġposs": 1581,
      "Ġpubl": 1582,
      "Ġtook": 1583,
      "Ġtoward": 1584,
      "Ġind": 1585,
      "Ġinv": 1586,
      "Through": 1587,
      "owers": 1588,
      "edy": 1589,
      "ited": 1590,
      "ities": 1591,
      "itud": 1592,
      "Ġgro": 1593,
      "ĠIt": 1594,
      "ots": 1595,
      "ĠSoul": 1596,
      "Ġshades": 1597,
      "amp": 1598,
      "Ġstrong": 1599,
      "Ġrec": 1600,
      "Ġred": 1601,
      "Ġrel": 1602,
      "urs": 1603,
      "urst": 1604,
      "urns": 1605,
      "ask": 1606,
      "ĠLand": 1607,
      "ĠPl": 1608,
      "ĠAir": 1609,
      "Ġ13": 1610,
      "Ġspeak": 1611,
      "Ġsuff": 1612,
      "ĠTru": 1613,
      "Ġneer": 1614,
      "ĠOr": 1615,
      "Ġkind": 1616,
      "Ġknew": 1617,
      "Ġcomes": 1618,
      "Ġblood": 1619,
      "Ġconc": 1620,
      "Ġfaith": 1621,
      "Ġdev": 1622,
      "ĠGods": 1623,
      "ĠNymph": 1624,
      "ĠThou": 1625,
      "Ġseat": 1626,
      "Ġarm": 1627,
      "athers": 1628,
      "Ġseem": 1629,
      "Ġclose": 1630,
      "Ġcannot": 1631,
      "Ġquite": 1632,
      "Ġsecret": 1633,
      "ĠFather": 1634,
      "Spir": 1635,
      "form": 1636,
      "Ġbehold": 1637,
      "Ġsorrow": 1638,
      "Ġweakness": 1639,
      "Ġleave": 1640,
      "ehov": 1641,
      "Ġgrief": 1642,
      "Ġenemies": 1643,
      "Ġsmooth": 1644,
      "Against": 1645,
      "Ġfavour": 1646,
      "Ġwicked": 1647,
      "itude": 1648,
      "XV": 1649,
      "aph": 1650,
      "dom": 1651,
      "eg": 1652,
      "na": 1653,
      "oly": 1654,
      "rone": 1655,
      "uck": 1656,
      "vi": 1657,
      "vent": 1658,
      "Ġut": 1659,
      "Ġel": 1660,
      "Ġ70": 1661,
      "Ġ80": 1662,
      "Ġsense": 1663,
      "Ġwo": 1664,
      "Ġwon": 1665,
      "Ġhor": 1666,
      "Ġhide": 1667,
      "Ġharm": 1668,
      "Ġmea": 1669,
      "Ġfra": 1670,
      "Ġfur": 1671,
      "Ġbear": 1672,
      "Ġtu": 1673,
      "Ġtake": 1674,
      "Ġtimes": 1675,
      "ony": 1676,
      "Ġdue": 1677,
      "Ġdread": 1678,
      "Ġcast": 1679,
      "Ġled": 1680,
      "Ġleast": 1681,
      "Ġnear": 1682,
      "These": 1683,
      "irc": 1684,
      "irt": 1685,
      "ĠSc": 1686,
      "ĠSea": 1687,
      "Ġstay": 1688,
      "Ġstand": 1689,
      "Ġreas": 1690,
      "Ġbegin": 1691,
      "asion": 1692,
      "Ġ11": 1693,
      "Ġ14": 1694,
      "ĠHis": 1695,
      "ally": 1696,
      "ĠCon": 1697,
      "ĠCom": 1698,
      "Ġval": 1699,
      "ongue": 1700,
      "ĠFathers": 1701,
      "Ġchief": 1702,
      "Ġunf": 1703,
      "Ġbless": 1704,
      "Ġblack": 1705,
      "ĠWor": 1706,
      "Ġface": 1707,
      "Ġdec": 1708,
      "Ġthence": 1709,
      "ĠNo": 1710,
      "Ġsacred": 1711,
      "Ġanswer": 1712,
      "Ġseen": 1713,
      "Ġglad": 1714,
      "Ġalso": 1715,
      "ĠJove": 1716,
      "erty": 1717,
      "Ġrid": 1718,
      "Ġscorn": 1719,
      "Ġdeliver": 1720,
      "Ġgrave": 1721,
      "Ġattend": 1722,
      "Ġwinds": 1723,
      "Ġdoubt": 1724,
      "Ġvertue": 1725,
      "Ġdraw": 1726,
      "Ġgolden": 1727,
      "----------------------------": 1728,
      "Ġwrath": 1729,
      "ehovah": 1730,
      "Al": 1731,
      "IS": 1732,
      "Let": 1733,
      "Under": 1734,
      "aul": 1735,
      "bit": 1736,
      "bour": 1737,
      "pe": 1738,
      "rant": 1739,
      "under": 1740,
      "vail": 1741,
      "we": 1742,
      "Ġran": 1743,
      "ĠWhat": 1744,
      "ĠQu": 1745,
      "Ġthing": 1746,
      "Ġac": 1747,
      "Ġag": 1748,
      "Ġson": 1749,
      "Ġsist": 1750,
      "ering": 1751,
      "Ġwear": 1752,
      "Ġwish": 1753,
      "Ġwatch": 1754,
      "Ġhate": 1755,
      "Ġhence": 1756,
      "Ġmon": 1757,
      "Ġmus": 1758,
      "Ġfanc": 1759,
      "Ġfresh": 1760,
      "Ġbra": 1761,
      "Ġborn": 1762,
      "Ġbirth": 1763,
      "Ġter": 1764,
      "Ġtrou": 1765,
      "Ġtem": 1766,
      "Ġdon": 1767,
      "Ġdone": 1768,
      "Ġcu": 1769,
      "Ġcru": 1770,
      "Ġcry": 1771,
      "Ġcrown": 1772,
      "Ġproud": 1773,
      "Ġinn": 1774,
      "itle": 1775,
      "Ġgrow": 1776,
      "cend": 1777,
      "ceive": 1778,
      "ĠIdol": 1779,
      "Ġhallow": 1780,
      "amous": 1781,
      "Ġrequ": 1782,
      "Ġbeg": 1783,
      "vers": 1784,
      "Wher": 1785,
      "ĠAp": 1786,
      "ĠAng": 1787,
      "Ġ12": 1788,
      "Ġ15": 1789,
      "ĠMar": 1790,
      "Ġord": 1791,
      "Ġvow": 1792,
      "Ġvar": 1793,
      "ĠBy": 1794,
      "ording": 1795,
      "ĠTem": 1796,
      "ĠFeast": 1797,
      "Ġchoice": 1798,
      "Ġunw": 1799,
      "ĠOF": 1800,
      "Ġloss": 1801,
      "Ġbliss": 1802,
      "ĠDel": 1803,
      "Ġdew": 1804,
      "Ġplay": 1805,
      "Ġsaw": 1806,
      "Ġsaid": 1807,
      "Ġsafe": 1808,
      "ations": 1809,
      "Ġmanuscript": 1810,
      "Ġarms": 1811,
      "Ġext": 1812,
      "Ġyoung": 1813,
      "Ġalong": 1814,
      "Ġclear": 1815,
      "Ġrich": 1816,
      "ĠĠĠĠĠĠĠĠĠĠĠĠĠĠĠĠĠĠĠĠĠĠĠĠĠĠĠĠĠĠĠĠĠĠĠ": 1817,
      "Ġtherefore": 1818,
      "ples": 1819,
      "Ġfirm": 1820,
      "Ġpray": 1821,
      "Ġgrace": 1822,
      "Ġmiser": 1823,
      "Ġreturn": 1824,
      "ĠSpir": 1825,
      "Ġaffli": 1826,
      "Ġfriends": 1827,
      "ridge": 1828,
      "ĠParadise": 1829,
      "Ġhelp": 1830,
      "Ġoccasion": 1831,
      "Ġantient": 1832,
      "Ġgentle": 1833,
      "ĠLycid": 1834,
      "ĠMoon": 1835,
      "Ġelse": 1836,
      "An": 1837,
      "Are": 1838,
      "Eld": 1839,
      "God": 1840,
      "Here": 1841,
      "Hath": 1842,
      "IV": 1843,
      "Into": 1844,
      "Mess": 1845,
      "Que": 1846,
      "SON": 1847,
      "Would": 1848,
      "born": 1849,
      "cer": 1850,
      "eus": 1851,
      "fet": 1852,
      "lf": 1853,
      "mb": 1854,
      "man": 1855,
      "no": 1856,
      "ob": 1857,
      "po": 1858,
      "pon": 1859,
      "pose": 1860,
      "rs": 1861,
      "sand": 1862,
      "ual": 1863,
      "uish": 1864,
      "vy": 1865,
      "ĠY": 1866,
      "Ġ90": 1867,
      "ĠQue": 1868,
      "though": 1869,
      "Ġsi": 1870,
      "Ġsits": 1871,
      "erve": 1872,
      "Ġwing": 1873,
      "Ġwide": 1874,
      "Ġwings": 1875,
      "Ġhea": 1876,
      "Ġhid": 1877,
      "Ġhither": 1878,
      "Ġob": 1879,
      "ream": 1880,
      "oura": 1881,
      "Ġma": 1882,
      "Ġmo": 1883,
      "Ġmour": 1884,
      "Ġfit": 1885,
      "Ġfru": 1886,
      "Ġfast": 1887,
      "Ġfeast": 1888,
      "Ġfield": 1889,
      "Ġtre": 1890,
      "Ġdie": 1891,
      "Ġcond": 1892,
      "Ġlie": 1893,
      "Ġinc": 1894,
      "Ġinchant": 1895,
      "edge": 1896,
      "irst": 1897,
      "Ġwhy": 1898,
      "otion": 1899,
      "Ġhalf": 1900,
      "raph": 1901,
      "Ġstran": 1902,
      "idst": 1903,
      "idence": 1904,
      "ays": 1905,
      "ention": 1906,
      "Ġthousand": 1907,
      "aining": 1908,
      "ĠHe": 1909,
      "Ġask": 1910,
      "ĠCount": 1911,
      "ĠGra": 1912,
      "Ġvie": 1913,
      "ĠBe": 1914,
      "Ġspread": 1915,
      "Ġsung": 1916,
      "Ġunp": 1917,
      "Ġnext": 1918,
      "Ġnoble": 1919,
      "ĠOn": 1920,
      "ulous": 1921,
      "Ġconst": 1922,
      "ication": 1923,
      "Ġanother": 1924,
      "aunt": 1925,
      "Ġworse": 1926,
      "Ġexce": 1927,
      "Ġ100": 1928,
      "aking": 1929,
      "Ġprof": 1930,
      "ountain": 1931,
      "Ġknown": 1932,
      "ĠThey": 1933,
      "Ġsecond": 1934,
      "ĠKings": 1935,
      "Shall": 1936,
      "ĠShepherds": 1937,
      "Ġrise": 1938,
      "Ġhung": 1939,
      "Ġdouble": 1940,
      "Ġhuman": 1941,
      "------------------------------------------------------------": 1942,
      "ograph": 1943,
      "Ġviol": 1944,
      "ercy": 1945,
      "ize": 1946,
      "ĠĠĠĠĠĠĠĠĠĠĠĠĠĠ": 1947,
      "Among": 1948,
      "Ġlabour": 1949,
      "Ġsubject": 1950,
      "Ġsleep": 1951,
      "Ġimmortal": 1952,
      "ĠLycidas": 1953,
      "Ġview": 1954,
      "12": 1955,
      "53": 1956,
      "AN": 1957,
      "AR": 1958,
      "After": 1959,
      "Hast": 1960,
      "Is": 1961,
      "Tw": 1962,
      "by": 1963,
      "ded": 1964,
      "dden": 1965,
      "ele": 1966,
      "eve": 1967,
      "hood": 1968,
      "just": 1969,
      "ken": 1970,
      "nly": 1971,
      "oic": 1972,
      "ollow": 1973,
      "pit": 1974,
      "su": 1975,
      "som": 1976,
      "ues": 1977,
      "yl": 1978,
      "Ġ:": 1979,
      "Ġing": 1980,
      "Ġil": 1981,
      "ĠWhere": 1982,
      "Ġels": 1983,
      "thor": 1984,
      "Ġsate": 1985,
      "Ġsame": 1986,
      "Ġsens": 1987,
      "Ġwea": 1988,
      "Ġwel": 1989,
      "Ġwast": 1990,
      "Ġwilde": 1991,
      "Ġothers": 1992,
      "Ġmad": 1993,
      "Ġmark": 1994,
      "Ġmouth": 1995,
      "ises": 1996,
      "Ġfet": 1997,
      "Ġbr": 1998,
      "Ġben": 1999,
      "Ġtongue": 2000,
      "atis": 2001,
      "ates": 2002,
      "lly": 2003,
      "ene": 2004,
      "ener": 2005,
      "enly": 2006,
      "Ġdore": 2007,
      "Ġdire": 2008,
      "Ġla": 2009,
      "Ġpard": 2010,
      "Ġpale": 2011,
      "Ġpron": 2012,
      "anch": 2013,
      "anks": 2014,
      "Ġinde": 2015,
      "Ġinward": 2016,
      "Ġwhether": 2017,
      "chi": 2018,
      "eturn": 2019,
      "Ġhair": 2020,
      "ĠSire": 2021,
      "ĠSeas": 2022,
      "ution": 2023,
      "utograph": 2024,
      "ric": 2025,
      "Ġund": 2026,
      "Ġshort": 2027,
      "Ġreg": 2028,
      "als": 2029,
      "Ġbec": 2030,
      "Ġbend": 2031,
      "Ġbeing": 2032,
      "ident": 2033,
      "urb": 2034,
      "roph": 2035,
      "ĠLXX": 2036,
      "Whose": 2037,
      "ester": 2038,
      "iles": 2039,
      "ĠPeace": 2040,
      "Ġform": 2041,
      "Ġfort": 2042,
      "ĠAn": 2043,
      "ĠAt": 2044,
      "ĠHow": 2045,
      "ĠHar": 2046,
      "ĠMr": 2047,
      "ĠMy": 2048,
      "ĠMon": 2049,
      "ĠMuse": 2050,
      "ĠGl": 2051,
      "Ġvan": 2052,
      "ifts": 2053,
      "Ġsol": 2054,
      "Ġsudden": 2055,
      "Off": 2056,
      "ants": 2057,
      "isten": 2058,
      "ĠEng": 2059,
      "Ġlov": 2060,
      "Ġliqu": 2061,
      "ument": 2062,
      "umph": 2063,
      "ortun": 2064,
      "Ġflight": 2065,
      "Ġflood": 2066,
      "Ġflower": 2067,
      "ishon": 2068,
      "osom": 2069,
      "Ġsever": 2070,
      "Ġworst": 2071,
      "Ġexp": 2072,
      "Ġexam": 2073,
      "Ġprov": 2074,
      "ably": 2075,
      "ountains": 2076,
      "ĠJo": 2077,
      "Ġdispl": 2078,
      "Ġfoe": 2079,
      "Ġdays": 2080,
      "Ġknows": 2081,
      "Ġoffer": 2082,
      "Ġmighty": 2083,
      "Ġvery": 2084,
      "ealth": 2085,
      "Ġdarkness": 2086,
      "Ġdarknes": 2087,
      "Ġpret": 2088,
      "Ġprevent": 2089,
      "Ġsmall": 2090,
      "ivers": 2091,
      "Ġresol": 2092,
      "Ġpoint": 2093,
      "ĠArt": 2094,
      "Ġfew": 2095,
      "Ġcommon": 2096,
      "Ġcommand": 2097,
      "ĠFaith": 2098,
      "Ġcountrey": 2099,
      "ĠWoods": 2100,
      "ĠPhilistian": 2101,
      "Ġnature": 2102,
      "Ġjudge": 2103,
      "Ġwoman": 2104,
      "Ġcorre": 2105,
      "ĠPriest": 2106,
      "ĠMusick": 2107,
      "Ġperfect": 2108,
      "ĠTragedy": 2109,
      "ĠCambridge": 2110,
      "Ġtender": 2111,
      "Ġdiffer": 2112,
      "ĠTruth": 2113,
      "Ġsister": 2114,
      "ĠQueen": 2115,
      ".]": 2116,
      "14": 2117,
      "Dal": 2118,
      "IT": 2119,
      "ION": 2120,
      "More": 2121,
      "Our": 2122,
      "Per": 2123,
      "Sw": 2124,
      "Som": 2125,
      "We": 2126,
      "Were": 2127,
      "Your": 2128,
      "aff": 2129,
      "co": 2130,
      "eat": 2131,
      "ging": 2132,
      "iqu": 2133,
      "long": 2134,
      "ma": 2135,
      "nare": 2136,
      "oa": 2137,
      "oke": 2138,
      "sim": 2139,
      "sight": 2140,
      "up": 2141,
      "unt": 2142,
      "ven": 2143,
      "Ġ!": 2144,
      "Ġring": 2145,
      "Ġthick": 2146,
      "Ġwat": 2147,
      "Ġwee": 2148,
      "Ġwound": 2149,
      "Ġopp": 2150,
      "Ġobs": 2151,
      "Ġmed": 2152,
      "Ġmel": 2153,
      "Ġfly": 2154,
      "Ġbar": 2155,
      "Ġbur": 2156,
      "Ġbook": 2157,
      "Ġtim": 2158,
      "Ġtry": 2159,
      "Ġtaste": 2160,
      "Ġtext": 2161,
      "Ġtask": 2162,
      "oral": 2163,
      "orus": 2164,
      "atic": 2165,
      "Ġden": 2166,
      "Ġdim": 2167,
      "Ġdance": 2168,
      "Ġcri": 2169,
      "Ġcalm": 2170,
      "Ġlot": 2171,
      "Ġlest": 2172,
      "Ġland": 2173,
      "Ġlines": 2174,
      "Ġpen": 2175,
      "Ġtold": 2176,
      "Ġinst": 2177,
      "owr": 2178,
      "oward": 2179,
      "ites": 2180,
      "itie": 2181,
      "itter": 2182,
      "lew": 2183,
      "Ġwhite": 2184,
      "sec": 2185,
      "ches": 2186,
      "Ġhabit": 2187,
      "ral": 2188,
      "uty": 2189,
      "Ġshap": 2190,
      "Ġshield": 2191,
      "ode": 2192,
      "ody": 2193,
      "Ġref": 2194,
      "iding": 2195,
      "ided": 2196,
      "ash": 2197,
      "roy": 2198,
      "roach": 2199,
      "Ġonely": 2200,
      "Ġmeet": 2201,
      "Ġyield": 2202,
      "ĠLet": 2203,
      "ĠLost": 2204,
      "Why": 2205,
      "ĠPal": 2206,
      "Ġ110": 2207,
      "ĠHeb": 2208,
      "ĠCour": 2209,
      "ĠCapt": 2210,
      "rupt": 2211,
      "asting": 2212,
      "astity": 2213,
      "Oft": 2214,
      "ĠTri": 2215,
      "ĠFriend": 2216,
      "Ġneigh": 2217,
      "Ġloose": 2218,
      "Ġlocks": 2219,
      "quent": 2220,
      "ĠDeath": 2221,
      "Ġfail": 2222,
      "Ġfather": 2223,
      "Ġdeg": 2224,
      "ĠGodd": 2225,
      "eaves": 2226,
      "Ġflame": 2227,
      "ĠNat": 2228,
      "ishment": 2229,
      "ĠRel": 2230,
      "Ġhearts": 2231,
      "ĠThen": 2232,
      "ops": 2233,
      "Ġworks": 2234,
      "Ġraise": 2235,
      "eason": 2236,
      "rance": 2237,
      "Ġsway": 2238,
      "Ġenjoy": 2239,
      "Ġ163": 2240,
      "Ġprove": 2241,
      "Ġproof": 2242,
      "ĠJud": 2243,
      "agn": 2244,
      "Ġdisc": 2245,
      "Ġdism": 2246,
      "Ġdisp": 2247,
      "Ġhighest": 2248,
      "Ġfolly": 2249,
      "Ġquick": 2250,
      "Ġhaste": 2251,
      "Ġways": 2252,
      "ments": 2253,
      "ship": 2254,
      "Ġscar": 2255,
      "Ġdesert": 2256,
      "aza": 2257,
      "ready": 2258,
      "Ġeven": 2259,
      "itting": 2260,
      "Ġcontent": 2261,
      "ĠInf": 2262,
      "Ġfeel": 2263,
      "ĠAmong": 2264,
      "Ġaccording": 2265,
      "Ġsilence": 2266,
      "Ġwaves": 2267,
      "Ġprinted": 2268,
      "Ġservice": 2269,
      "Ġemph": 2270,
      "ĠPhilistines": 2271,
      "Ġwonder": 2272,
      "Ġperson": 2273,
      "Ġdefence": 2274,
      "Ġanger": 2275,
      "Ġwandring": 2276,
      "ĠAug": 2277,
      "Ġeasily": 2278,
      "Ġboast": 2279,
      "Ġhappy": 2280,
      "Ġspirits": 2281,
      "Ġcharms": 2282,
      "Ġmodern": 2283,
      "Ġutmost": 2284,
      "Ġmeans": 2285,
      "Ġfurther": 2286,
      "ircum": 2287,
      "Ġfancy": 2288,
      "ĠAngel": 2289,
      "ĠDeliver": 2290,
      "fety": 2291,
      "Ġpardon": 2292,
      "Ġindeed": 2293,
      "11": 2294,
      "13": 2295,
      "EM": 2296,
      "Him": 2297,
      "Hence": 2298,
      "Sm": 2299,
      "Sab": 2300,
      "Some": 2301,
      "aves": 2302,
      "bra": 2303,
      "ci": 2304,
      "eel": 2305,
      "gle": 2306,
      "hn": 2307,
      "ires": 2308,
      "lock": 2309,
      "mm": 2310,
      "min": 2311,
      "mon": 2312,
      "nk": 2313,
      "night": 2314,
      "oast": 2315,
      "pire": 2316,
      "prin": 2317,
      "pass": 2318,
      "rine": 2319,
      "sion": 2320,
      "und": 2321,
      "vate": 2322,
      "yll": 2323,
      "ying": 2324,
      "Ġ--": 2325,
      "Ġve": 2326,
      "Ġet": 2327,
      "Ġid": 2328,
      "Ġke": 2329,
      "ĠYet": 2330,
      "Ġrans": 2331,
      "then": 2332,
      "Ġthrone": 2333,
      "ĠĠĠĠĠĠĠĠĠĠ": 2334,
      "ĠĠĠĠĠĠĠĠĠĠĠĠĠĠĠ": 2335,
      "Ġact": 2336,
      "Ġsend": 2337,
      "Ġsought": 2338,
      "Ġwed": 2339,
      "Ġwit": 2340,
      "Ġwood": 2341,
      "Ġweep": 2342,
      "Ġwert": 2343,
      "Ġwild": 2344,
      "Ġwont": 2345,
      "Ġhur": 2346,
      "Ġhill": 2347,
      "Ġhost": 2348,
      "rep": 2349,
      "reth": 2350,
      "reath": 2351,
      "Ġmal": 2352,
      "Ġmur": 2353,
      "Ġmess": 2354,
      "Ġfin": 2355,
      "Ġfro": 2356,
      "Ġfight": 2357,
      "Ġfond": 2358,
      "Ġfears": 2359,
      "Ġfamous": 2360,
      "Ġbad": 2361,
      "Ġbore": 2362,
      "Ġten": 2363,
      "Ġtaught": 2364,
      "ones": 2365,
      "ora": 2366,
      "orm": 2367,
      "ately": 2368,
      "atience": 2369,
      "enge": 2370,
      "Ġdam": 2371,
      "Ġdaughter": 2372,
      "Ġdurst": 2373,
      "ĠĠĠĠĠĠĠĠĠĠĠĠĠĠĠĠĠĠĠĠĠĠĠĠĠĠĠĠĠĠĠĠĠĠĠĠĠĠĠĠĠĠ": 2374,
      "Ġcar": 2375,
      "Ġcro": 2376,
      "Ġcol": 2377,
      "Ġly": 2378,
      "Ġling": 2379,
      "Ġlim": 2380,
      "Ġlaid": 2381,
      "Ġpit": 2382,
      "Ġpun": 2383,
      "Ġpens": 2384,
      "Ġnone": 2385,
      "owre": 2386,
      "owing": 2387,
      "arg": 2388,
      "aring": 2389,
      "Ġgain": 2390,
      "Ġgift": 2391,
      "Ġgrant": 2392,
      "ĠIle": 2393,
      "ĠSph": 2394,
      "ĠSaint": 2395,
      "ries": 2396,
      "rice": 2397,
      "Ġshine": 2398,
      "Ġshade": 2399,
      "Ġstore": 2400,
      "Ġreceive": 2401,
      "verse": 2402,
      "Ġnote": 2403,
      "ĠLa": 2404,
      "Thee": 2405,
      "ĠAll": 2406,
      "ĠAss": 2407,
      "Ġ17": 2408,
      "Ġ120": 2409,
      "Ġ130": 2410,
      "Ġ140": 2411,
      "Ġ150": 2412,
      "ĠHill": 2413,
      "ĠHost": 2414,
      "ĠMen": 2415,
      "ĠMag": 2416,
      "ĠGath": 2417,
      "ĠGiant": 2418,
      "ĠGaza": 2419,
      "geon": 2420,
      "rud": 2421,
      "Ġvol": 2422,
      "ĠBra": 2423,
      "ĠBook": 2424,
      "ush": 2425,
      "usion": 2426,
      "Ġsport": 2427,
      "Ġspring": 2428,
      "Ġspelt": 2429,
      "Ġits": 2430,
      "ords": 2431,
      "ĠTime": 2432,
      "ĠFrom": 2433,
      "Ġchance": 2434,
      "Ġchild": 2435,
      "Ġcharm": 2436,
      "Ġneeds": 2437,
      "Ġnegle": 2438,
      "ĠEl": 2439,
      "quer": 2440,
      "Ġcomb": 2441,
      "Ġcoming": 2442,
      "Ġcompl": 2443,
      "Ġlib": 2444,
      "Ġblast": 2445,
      "Ġblaze": 2446,
      "ular": 2447,
      "umm": 2448,
      "umber": 2449,
      "pping": 2450,
      "ards": 2451,
      "Ġplain": 2452,
      "Ġplease": 2453,
      "ivity": 2454,
      "ĠName": 2455,
      "ĠRe": 2456,
      "Ġsage": 2457,
      "Ġsafety": 2458,
      "ĠThere": 2459,
      "Ġthirst": 2460,
      "Ġgloom": 2461,
      "nown": 2462,
      "nowled": 2463,
      "Ġexpl": 2464,
      "Ġexact": 2465,
      "Ġrace": 2466,
      "Ġamidst": 2467,
      "Ġsword": 2468,
      "Ġ160": 2469,
      "othing": 2470,
      "Ġabs": 2471,
      "Ġseems": 2472,
      "Ġclad": 2473,
      "Ġrude": 2474,
      "Ġrush": 2475,
      "Ġcanst": 2476,
      "ĠJehovah": 2477,
      "Ġears": 2478,
      "ĠĠĠĠĠĠĠĠĠĠĠĠĠĠĠĠĠĠĠĠĠĠĠĠĠĠĠĠĠĠĠĠĠ": 2479,
      "Ġfool": 2480,
      "bled": 2481,
      "Ġquest": 2482,
      "Samson": 2483,
      "Ġslow": 2484,
      "Ġslain": 2485,
      "selves": 2486,
      "ips": 2487,
      "ney": 2488,
      "Ġadd": 2489,
      "Ġends": 2490,
      "Ġoften": 2491,
      "Ġguide": 2492,
      "Ġguilt": 2493,
      "Ġremem": 2494,
      "Ġcontempt": 2495,
      "ymn": 2496,
      "Ġsingle": 2497,
      "ernal": 2498,
      "Ġbetray": 2499,
      "where": 2500,
      "Ġbrood": 2501,
      "Ġtrain": 2502,
      "Ġenter": 2503,
      "ĠShall": 2504,
      "Ġsilver": 2505,
      "Ġbehind": 2506,
      "ounsel": 2507,
      "Ġpride": 2508,
      "Ġprime": 2509,
      "Ġlooks": 2510,
      "Ġvertuous": 2511,
      "Ġaway": 2512,
      "Ġvisit": 2513,
      "mitted": 2514,
      "Ġwondrous": 2515,
      "Ġsuppl": 2516,
      "ĠNations": 2517,
      "Ġwanton": 2518,
      "Ġlearn": 2519,
      "Ġlearned": 2520,
      "Ġdaily": 2521,
      "ĠPrinces": 2522,
      "ĠAuthor": 2523,
      "Ġmorning": 2524,
      "Ġspirit": 2525,
      "Ġclouds": 2526,
      "ointed": 2527,
      "Ġbelow": 2528,
      "Above": 2529,
      "Ġrout": 2530,
      "Ġnumber": 2531,
      "Ġfierce": 2532,
      "Ġcourse": 2533,
      "Ġsuffer": 2534,
      "ĠNymphs": 2535,
      "Ġreason": 2536,
      "ween": 2537,
      "Ġaccept": 2538,
      "Ġinnoc": 2539,
      "Ġorder": 2540,
      "Ġvarious": 2541,
      "ĠSpirit": 2542,
      "Ġmourn": 2543,
      "Ġwelcom": 2544,
      "Ġfetch": 2545,
      "atisf": 2546,
      "ancholy": 2547,
      "ĠEngl": 2548,
      "Ġexample": 2549,
      "Ġneighbour": 2550,
      "Ġransom": 2551,
      "Ġmessage": 2552,
      "AC": 2553,
      "AS": 2554,
      "Bl": 2555,
      "Con": 2556,
      "Che": 2557,
      "DON": 2558,
      "ED": 2559,
      "Ex": 2560,
      "Ent": 2561,
      "Far": 2562,
      "Have": 2563,
      "IX": 2564,
      "Listen": 2565,
      "Me": 2566,
      "Nothing": 2567,
      "Sc": 2568,
      "ax": 2569,
      "bes": 2570,
      "bing": 2571,
      "but": 2572,
      "bid": 2573,
      "cor": 2574,
      "cess": 2575,
      "cure": 2576,
      "cious": 2577,
      "cean": 2578,
      "cience": 2579,
      "di": 2580,
      "dy": 2581,
      "dle": 2582,
      "dition": 2583,
      "gl": 2584,
      "gon": 2585,
      "gress": 2586,
      "her": 2587,
      "ii": 2588,
      "io": 2589,
      "iot": 2590,
      "iet": 2591,
      "ius": 2592,
      "jest": 2593,
      "light": 2594,
      "ner": 2595,
      "nal": 2596,
      "oar": 2597,
      "port": 2598,
      "tis": 2599,
      "ters": 2600,
      "upt": 2601,
      "yri": 2602,
      "yond": 2603,
      "ze": 2604,
      "Ġrow": 2605,
      "Ġire": 2606,
      "ĠWho": 2607,
      "ĠWhen": 2608,
      "Ġthan": 2609,
      "Ġthrow": 2610,
      "Ġthree": 2611,
      "Ġthrong": 2612,
      "Ġthunder": 2613,
      "Ġaught": 2614,
      "Ġacts": 2615,
      "Ġautograph": 2616,
      "inct": 2617,
      "Ġsore": 2618,
      "Ġsign": 2619,
      "Ġsatisf": 2620,
      "era": 2621,
      "erse": 2622,
      "Ġwrought": 2623,
      "Ġwrong": 2624,
      "Ġhour": 2625,
      "rets": 2626,
      "Ġmin": 2627,
      "Ġmut": 2628,
      "Ġmist": 2629,
      "Ġmass": 2630,
      "Ġmov": 2631,
      "Ġmute": 2632,
      "Ġmilde": 2633,
      "Ġmotion": 2634,
      "Ġmention": 2635,
      "Ġfold": 2636,
      "Ġfrown": 2637,
      "Ġbin": 2638,
      "Ġbri": 2639,
      "Ġbran": 2640,
      "Ġburn": 2641,
      "Ġbase": 2642,
      "Ġbatt": 2643,
      "Ġbody": 2644,
      "Ġtune": 2645,
      "orrow": 2646,
      "ats": 2647,
      "Ġdet": 2648,
      "Ġdri": 2649,
      "Ġdrin": 2650,
      "Ġdrows": 2651,
      "Ġdream": 2652,
      "Ġdishon": 2653,
      "eam": 2654,
      "Ġca": 2655,
      "Ġcut": 2656,
      "Ġcease": 2657,
      "Ġcool": 2658,
      "Ġcapt": 2659,
      "Ġlament": 2660,
      "Ġpop": 2661,
      "Ġpage": 2662,
      "Ġpress": 2663,
      "Ġpains": 2664,
      "Ġnigh": 2665,
      "ingly": 2666,
      "Thus": 2667,
      "omb": 2668,
      "omp": 2669,
      "ital": 2670,
      "arge": 2671,
      "Ġgon": 2672,
      "Ġgay": 2673,
      "Ġgrows": 2674,
      "Ġgirt": 2675,
      "Ġgifts": 2676,
      "irce": 2677,
      "Ġwher": 2678,
      "Ġwhence": 2679,
      "ĠIron": 2680,
      "cher": 2681,
      "ching": 2682,
      "ote": 2683,
      "Ġhaving": 2684,
      "raw": 2685,
      "rall": 2686,
      "ĠSin": 2687,
      "ĠSir": 2688,
      "ĠSain": 2689,
      "ried": 2690,
      "Ġur": 2691,
      "Ġshore": 2692,
      "Ġshout": 2693,
      "earing": 2694,
      "Ġstring": 2695,
      "Ġsteep": 2696,
      "Ġstray": 2697,
      "Ġrenew": 2698,
      "Ġreceiv": 2699,
      "Ġeev": 2700,
      "alks": 2701,
      "Ġbef": 2702,
      "ury": 2703,
      "uring": 2704,
      "ents": 2705,
      "asse": 2706,
      "rose": 2707,
      "Ġnotes": 2708,
      "ĠLib": 2709,
      "ilst": 2710,
      "ouring": 2711,
      "ĠPan": 2712,
      "ĠPres": 2713,
      "ĠPrison": 2714,
      "Ġfors": 2715,
      "ĠAd": 2716,
      "Ġ170": 2717,
      "ĠHy": 2718,
      "ĠCl": 2719,
      "ĠCy": 2720,
      "ĠCity": 2721,
      "ĠCons": 2722,
      "cknowled": 2723,
      "ĠGent": 2724,
      "gether": 2725,
      "eek": 2726,
      "ifie": 2727,
      "ĠBar": 2728,
      "Ġspare": 2729,
      "Ġspred": 2730,
      "Ġspec": 2731,
      "ĠTre": 2732,
      "ĠTim": 2733,
      "resent": 2734,
      "nts": 2735,
      "Ġchains": 2736,
      "emn": 2737,
      "Ġunjust": 2738,
      "ĠOcean": 2739,
      "pheus": 2740,
      "ĠEb": 2741,
      "ĠEn": 2742,
      "ĠEast": 2743,
      "Ġload": 2744,
      "Ġloath": 2745,
      "Ġkn": 2746,
      "Ġliving": 2747,
      "Ġdoes": 2748,
      "Ġdoom": 2749,
      "Ġblest": 2750,
      "Ġblame": 2751,
      "Ġthemselves": 2752,
      "ĠDo": 2753,
      "ĠDay": 2754,
      "icer": 2755,
      "icious": 2756,
      "umes": 2757,
      "Ġdeb": 2758,
      "Ġplight": 2759,
      "Ġplant": 2760,
      "ungeon": 2761,
      "ives": 2762,
      "Ġfled": 2763,
      "Ġflocks": 2764,
      "isht": 2765,
      "ĠReturn": 2766,
      "Ġsake": 2767,
      "Ġanough": 2768,
      "ĠThus": 2769,
      "Ġarg": 2770,
      "Ġrage": 2771,
      "Ġalas": 2772,
      "Ġalready": 2773,
      "Ġgreet": 2774,
      "Ġswift": 2775,
      "Ġenv": 2776,
      "Ġencl": 2777,
      "Ġ1653": 2778,
      "aken": 2779,
      "rina": 2780,
      "ables": 2781,
      "Ġabode": 2782,
      "Ġearly": 2783,
      "ĠVine": 2784,
      "Ġperform": 2785,
      "pless": 2786,
      "asson": 2787,
      "Ġfoot": 2788,
      "ĠHeaven": 2789,
      "bling": 2790,
      "Ġquit": 2791,
      "ĠTheir": 2792,
      "Ġimb": 2793,
      "Ġwouldst": 2794,
      "Ġslaughter": 2795,
      "Ġverse": 2796,
      "seless": 2797,
      "ĠCher": 2798,
      "ĠChar": 2799,
      "ĠChorus": 2800,
      "Ġrock": 2801,
      "Ġbrest": 2802,
      "Ġdesp": 2803,
      "Ġdesire": 2804,
      "Ġdescend": 2805,
      "Ġprey": 2806,
      "Ġheads": 2807,
      "Ġtrim": 2808,
      "Ġsecure": 2809,
      "ission": 2810,
      "Ġease": 2811,
      "Ġlovely": 2812,
      "aving": 2813,
      "avish": 2814,
      "Ġrestore": 2815,
      "Ġmisprin": 2816,
      "Ġbrings": 2817,
      "Ġsince": 2818,
      "Ġreturns": 2819,
      "Ġrighteous": 2820,
      "gged": 2821,
      "Ġaffect": 2822,
      "Ġsilent": 2823,
      "Ġfriendly": 2824,
      "Ġreveal": 2825,
      "ĠThyrs": 2826,
      "ĠManuscript": 2827,
      "ĠManoa": 2828,
      "Ġmio": 2829,
      "Ġmixt": 2830,
      "Ġinfl": 2831,
      "Ġstreams": 2832,
      "Ġparts": 2833,
      "Ġstrait": 2834,
      "ĠPrinted": 2835,
      "Ġevils": 2836,
      "urious": 2837,
      "Ġwisdom": 2838,
      "ĠProf": 2839,
      "ING": 2840,
      "ORD": 2841,
      "Ġskill": 2842,
      "arriage": 2843,
      "appy": 2844,
      "ĠWhy": 2845,
      "Ġsteps": 2846,
      "Ġesteem": 2847,
      "Ġdestroy": 2848,
      "Ġpossess": 2849,
      "Ġindign": 2850,
      "Ġwonted": 2851,
      "Ġhorrid": 2852,
      "Ġattendant": 2853,
      "Ġmiserable": 2854,
      "Ġfruit": 2855,
      "Ġconstra": 2856,
      "Ġexcell": 2857,
      "Ġpronoun": 2858,
      "Ġbecause": 2859,
      "ĠJohn": 2860,
      "Ġmedit": 2861,
      "ĠRelig": 2862,
      "Ġemphas": 2863,
      "Ġeternal": 2864,
      "Ġidle": 2865,
      "Ġmurm": 2866,
      "ĠThyrsis": 2867,
      "15": 2868,
      "17": 2869,
      "AI": 2870,
      "AM": 2871,
      "Can": 2872,
      "De": 2873,
      "Dis": 2874,
      "En": 2875,
      "Full": 2876,
      "HO": 2877,
      "Imp": 2878,
      "Jehovah": 2879,
      "Love": 2880,
      "Might": 2881,
      "Mine": 2882,
      "Made": 2883,
      "Ne": 2884,
      "Nat": 2885,
      "OS": 2886,
      "Over": 2887,
      "OEM": 2888,
      "Tell": 2889,
      "Trans": 2890,
      "US": 2891,
      "Upon": 2892,
      "You": 2893,
      "aim": 2894,
      "afe": 2895,
      "bar": 2896,
      "bers": 2897,
      "band": 2898,
      "bably": 2899,
      "cy": 2900,
      "cons": 2901,
      "cchi": 2902,
      "ds": 2903,
      "ept": 2904,
      "fl": 2905,
      "fold": 2906,
      "fted": 2907,
      "follow": 2908,
      "gment": 2909,
      "hor": 2910,
      "head": 2911,
      "iar": 2912,
      "lorn": 2913,
      "mity": 2914,
      "oi": 2915,
      "off": 2916,
      "oint": 2917,
      "obs": 2918,
      "oeb": 2919,
      "ping": 2920,
      "pest": 2921,
      "press": 2922,
      "ror": 2923,
      "rut": 2924,
      "ty": 2925,
      "tar": 2926,
      "ua": 2927,
      "vial": 2928,
      "way": 2929,
      "was": 2930,
      "wail": 2931,
      "ye": 2932,
      "ypt": 2933,
      "za": 2934,
      "Ġ.": 2935,
      "Ġris": 2936,
      "ĠUn": 2937,
      "Ġ------------------------": 2938,
      "ĠĠĠĠĠĠ": 2939,
      "Ġthreat": 2940,
      "Ġap": 2941,
      "Ġast": 2942,
      "Ġaid": 2943,
      "inch": 2944,
      "inks": 2945,
      "Ġsort": 2946,
      "Ġsigh": 2947,
      "Ġsease": 2948,
      "erfore": 2949,
      "Ġwin": 2950,
      "Ġwent": 2951,
      "Ġwine": 2952,
      "Ġwife": 2953,
      "Ġwealth": 2954,
      "Ġwalks": 2955,
      "Ġhorn": 2956,
      "Ġheal": 2957,
      "Ġought": 2958,
      "reme": 2959,
      "Ġmer": 2960,
      "Ġmain": 2961,
      "Ġmould": 2962,
      "Ġmak": 2963,
      "Ġmount": 2964,
      "Ġmove": 2965,
      "Ġmatch": 2966,
      "Ġmirth": 2967,
      "Ġmercy": 2968,
      "Ġfu": 2969,
      "Ġfat": 2970,
      "Ġfour": 2971,
      "Ġfee": 2972,
      "Ġfron": 2973,
      "Ġfaint": 2974,
      "Ġfix": 2975,
      "Ġfixt": 2976,
      "Ġbus": 2977,
      "Ġbind": 2978,
      "Ġbrow": 2979,
      "Ġbud": 2980,
      "Ġbears": 2981,
      "Ġbanks": 2982,
      "Ġte": 2983,
      "Ġtear": 2984,
      "Ġtempt": 2985,
      "Ġtakes": 2986,
      "Ġtitle": 2987,
      "orth": 2988,
      "ories": 2989,
      "atin": 2990,
      "ating": 2991,
      "ench": 2992,
      "Ġdw": 2993,
      "Ġdem": 2994,
      "Ġdust": 2995,
      "Ġdeal": 2996,
      "Ġdanc": 2997,
      "Ġdaint": 2998,
      "each": 2999,
      "eaks": 3000,
      "ĠĠĠĠĠĠĠĠĠĠĠĠĠĠĠĠĠĠĠĠĠĠĠĠĠĠĠĠĠĠĠĠĠĠĠĠĠĠĠĠĠĠĠĠ": 3001,
      "Ġcal": 3002,
      "Ġcur": 3003,
      "Ġcent": 3004,
      "Ġciv": 3005,
      "Ġcold": 3006,
      "Ġcele": 3007,
      "Ġlod": 3008,
      "Ġlend": 3009,
      "Ġlust": 3010,
      "Ġlap": 3011,
      "Ġlater": 3012,
      "Ġpace": 3013,
      "Ġpatience": 3014,
      "Ġner": 3015,
      "Ġnon": 3016,
      "Ġnur": 3017,
      "stall": 3018,
      "stand": 3019,
      "Ġtoy": 3020,
      "any": 3021,
      "Ġgot": 3022,
      "Ġgaze": 3023,
      "let": 3024,
      "seen": 3025,
      "ĠIf": 3026,
      "vel": 3027,
      "ched": 3028,
      "charg": 3029,
      "otted": 3030,
      "Ġhaunt": 3031,
      "ĠSl": 3032,
      "ĠSat": 3033,
      "ĠSac": 3034,
      "ĠScept": 3035,
      "elm": 3036,
      "elest": 3037,
      "eless": 3038,
      "Ġunto": 3039,
      "Ġshad": 3040,
      "odious": 3041,
      "Ġstud": 3042,
      "Ġstory": 3043,
      "Ġreb": 3044,
      "Ġrear": 3045,
      "Ġreck": 3046,
      "Ġeff": 3047,
      "aly": 3048,
      "aying": 3049,
      "uro": 3050,
      "vering": 3051,
      "rove": 3052,
      "road": 3053,
      "Ġmem": 3054,
      "Ġyears": 3055,
      "ĠLad": 3056,
      "ĠLON": 3057,
      "Whether": 3058,
      "illars": 3059,
      "estiv": 3060,
      "ourney": 3061,
      "ĠPs": 3062,
      "ĠPip": 3063,
      "ĠPubl": 3064,
      "Ġformer": 3065,
      "Ġforbid": 3066,
      "ĠHath": 3067,
      "ĠMel": 3068,
      "ĠMess": 3069,
      "ĠMaid": 3070,
      "ĠMother": 3071,
      "Ġash": 3072,
      "ĠCan": 3073,
      "Too": 3074,
      "essant": 3075,
      "ckt": 3076,
      "ĠGo": 3077,
      "ĠGold": 3078,
      "ruction": 3079,
      "Ġvast": 3080,
      "usk": 3081,
      "Ġspent": 3082,
      "Ġspee": 3083,
      "orded": 3084,
      "ĠTw": 3085,
      "ĠTitle": 3086,
      "ĠFame": 3087,
      "Ġchose": 3088,
      "emper": 3089,
      "ante": 3090,
      "antine": 3091,
      "Ġunh": 3092,
      "Ġuns": 3093,
      "ists": 3094,
      "istes": 3095,
      "isted": 3096,
      "ando": 3097,
      "Ġloves": 3098,
      "Ġwash": 3099,
      "Ġbloss": 3100,
      "olation": 3101,
      "ulg": 3102,
      "ĠDe": 3103,
      "ĠDan": 3104,
      "ical": 3105,
      "ume": 3106,
      "ĠWom": 3107,
      "ĠWind": 3108,
      "ĠWilt": 3109,
      "Ġdeed": 3110,
      "Ġplac": 3111,
      "iving": 3112,
      "ivine": 3113,
      "Ġjourney": 3114,
      "Ġflie": 3115,
      "Ġflock": 3116,
      "Ġflames": 3117,
      "ĠNight": 3118,
      "ĠRu": 3119,
      "Ġhearken": 3120,
      "osi": 3121,
      "oso": 3122,
      "oses": 3123,
      "opes": 3124,
      "Ġgli": 3125,
      "Ġglut": 3126,
      "Ġstrew": 3127,
      "Ġsheen": 3128,
      "Ġrais": 3129,
      "Ġalmost": 3130,
      "igli": 3131,
      "Ġamorous": 3132,
      "Ġenth": 3133,
      "Ġenough": 3134,
      "Ġhadst": 3135,
      "arents": 3136,
      "Ġproph": 3137,
      "onds": 3138,
      "Ġabide": 3139,
      "Ġabroad": 3140,
      "Ġclime": 3141,
      "Ġruin": 3142,
      "Ġrule": 3143,
      "Ġoutward": 3144,
      "ĠJoy": 3145,
      "ĠJac": 3146,
      "ertue": 3147,
      "ĠVi": 3148,
      "ager": 3149,
      "acle": 3150,
      "acsim": 3151,
      "Ġquell": 3152,
      "Ġquaint": 3153,
      "Ġdayes": 3154,
      "Ġgoodness": 3155,
      "apital": 3156,
      "Ġoffice": 3157,
      "Ġslight": 3158,
      "Ġvers": 3159,
      "ONG": 3160,
      "resses": 3161,
      "Ġrose": 3162,
      "Ġroof": 3163,
      "Ġbreed": 3164,
      "Notes": 3165,
      "Ġdesc": 3166,
      "ealous": 3167,
      "Ġnightly": 3168,
      "epul": 3169,
      "like": 3170,
      "ĠStars": 3171,
      "fully": 3172,
      "Ġtriumph": 3173,
      "Ġtrivial": 3174,
      "angu": 3175,
      "angled": 3176,
      "perience": 3177,
      "Ġovert": 3178,
      "Ġguard": 3179,
      "Ġremains": 3180,
      "Ġremaining": 3181,
      "Once": 3182,
      "ierce": 3183,
      "Ġreport": 3184,
      "Ġreproach": 3185,
      "criber": 3186,
      "Ġrespect": 3187,
      "aughters": 3188,
      "Ġpoet": 3189,
      "Ġpresence": 3190,
      "ĠArc": 3191,
      "ĠArm": 3192,
      "ĠArms": 3193,
      "Ġfeign": 3194,
      "ĠBrothers": 3195,
      "Ġmisch": 3196,
      "ragon": 3197,
      "Ġnews": 3198,
      "Before": 3199,
      "which": 3200,
      "Ġbroad": 3201,
      "Ġbrook": 3202,
      "Ġsooner": 3203,
      "Ġpurs": 3204,
      "Ġpurpose": 3205,
      "Ġpassage": 3206,
      "Ġimportun": 3207,
      "Ġentertain": 3208,
      "Ġaccident": 3209,
      "Ġmortals": 3210,
      "Ġprinter": 3211,
      "Ġhumble": 3212,
      "ĠPoem": 3213,
      "ĠPoets": 3214,
      "ĠPoems": 3215,
      "Comes": 3216,
      "Ġdrawn": 3217,
      "akesp": 3218,
      "Ġseeking": 3219,
      "Ġmeek": 3220,
      "Ġvict": 3221,
      "Ġsuppose": 3222,
      "Ġpleasure": 3223,
      "Ġflowry": 3224,
      "ollo": 3225,
      "Ġpersw": 3226,
      "Ġdelights": 3227,
      "Ġbesides": 3228,
      "Ġparted": 3229,
      "Ġenemy": 3230,
      "Ġfollows": 3231,
      "Ġio": 3232,
      "Ġwomb": 3233,
      "Ġtransgress": 3234,
      "Ġgives": 3235,
      "Ġadvant": 3236,
      "Ġeasie": 3237,
      "Ġwisest": 3238,
      "Ġforet": 3239,
      "Ġbeams": 3240,
      "Ġleads": 3241,
      "erved": 3242,
      "Ġwrit": 3243,
      "Ġharsh": 3244,
      "Ġodours": 3245,
      "Ġodorous": 3246,
      "Ġfreed": 3247,
      "About": 3248,
      "rata": 3249,
      "Ġopen": 3250,
      "Ġbounds": 3251,
      "Ġcourt": 3252,
      "Ġpossible": 3253,
      "Ġpublic": 3254,
      "Ġtowards": 3255,
      "ampion": 3256,
      "Ġhideous": 3257,
      "ĠScene": 3258,
      "Ġreasons": 3259,
      "Ġbegins": 3260,
      "ĠComus": 3261,
      "ĠWorld": 3262,
      "Ġaged": 3263,
      "Ġtrouble": 3264,
      "Ġtemper": 3265,
      "Ġrequest": 3266,
      "Wherwith": 3267,
      "ĠTemple": 3268,
      "Ġaffliction": 3269,
      "ourage": 3270,
      "ourable": 3271,
      "Ġtreas": 3272,
      "ĠCountrey": 3273,
      "Ġviolence": 3274,
      "Ġmouths": 3275,
      "Ġbrute": 3276,
      "Ġbeneath": 3277,
      "Ġregard": 3278,
      "ĠLXXX": 3279,
      "ĠGlass": 3280,
      "Ġdifferent": 3281,
      "Ġtimely": 3282,
      "Ġdeny": 3283,
      "ĠCaptive": 3284,
      "ĠTribe": 3285,
      "ĠGoddes": 3286,
      "Ġscarce": 3287,
      "ĠDeliverer": 3288,
      "Sabrina": 3289,
      "oasts": 3290,
      "Ġkept": 3291,
      "Ġlingua": 3292,
      "Ġpunishment": 3293,
      "Ġliberty": 3294,
      "ĠEnglish": 3295,
      "gonistes": 3296,
      "Ġdrowsie": 3297,
      "ĠSaints": 3298,
      "ĠCyn": 3299,
      "cknowledge": 3300,
      "ĠEnem": 3301,
      "Ġargument": 3302,
      "Transcriber": 3303,
      "oebus": 3304,
      "Ġ--------------------------": 3305,
      "ĠLONDON": 3306,
      ").": 3307,
      ");": 3308,
      ".'": 3309,
      "Ad": 3310,
      "Ar": 3311,
      "Aff": 3312,
      "Bes": 3313,
      "Ben": 3314,
      "Both": 3315,
      "Cl": 3316,
      "Could": 3317,
      "Down": 3318,
      "Dep": 3319,
      "Def": 3320,
      "EL": 3321,
      "ET": 3322,
      "Either": 3323,
      "Fear": 3324,
      "Find": 3325,
      "Fame": 3326,
      "First": 3327,
      "Gu": 3328,
      "Hel": 3329,
      "ID": 3330,
      "Lest": 3331,
      "Less": 3332,
      "LES": 3333,
      "OM": 3334,
      "Pl": 3335,
      "Par": 3336,
      "PON": 3337,
      "RE": 3338,
      "RI": 3339,
      "Re": 3340,
      "Rise": 3341,
      "Sin": 3342,
      "Sle": 3343,
      "See": 3344,
      "Tri": 3345,
      "THE": 3346,
      "Toward": 3347,
      "VI": 3348,
      "VII": 3349,
      "VIII": 3350,
      "War": 3351,
      "Ye": 3352,
      "Yea": 3353,
      "ai": 3354,
      "ares": 3355,
      "ather": 3356,
      "ault": 3357,
      "bre": 3358,
      "bow": 3359,
      "bed": 3360,
      "bro": 3361,
      "bian": 3362,
      "cis": 3363,
      "cuse": 3364,
      "ding": 3365,
      "dest": 3366,
      "dess": 3367,
      "diant": 3368,
      "ek": 3369,
      "ford": 3370,
      "go": 3371,
      "gs": 3372,
      "ger": 3373,
      "gal": 3374,
      "gue": 3375,
      "hear": 3376,
      "hand": 3377,
      "hold": 3378,
      "ior": 3379,
      "iate": 3380,
      "ipt": 3381,
      "ium": 3382,
      "iance": 3383,
      "iov": 3384,
      "kes": 3385,
      "lab": 3386,
      "lorious": 3387,
      "lasting": 3388,
      "mble": 3389,
      "mrose": 3390,
      "mission": 3391,
      "ners": 3392,
      "oot": 3393,
      "oid": 3394,
      "oof": 3395,
      "oots": 3396,
      "oosom": 3397,
      "pro": 3398,
      "path": 3399,
      "pond": 3400,
      "pris": 3401,
      "pense": 3402,
      "rit": 3403,
      "rot": 3404,
      "rise": 3405,
      "sie": 3406,
      "sol": 3407,
      "tri": 3408,
      "uence": 3409,
      "upp": 3410,
      "vest": 3411,
      "wise": 3412,
      "wixt": 3413,
      "xx": 3414,
      "your": 3415,
      "zen": 3416,
      "ĠZ": 3417,
      "Ġir": 3418,
      "Ġign": 3419,
      "there": 3420,
      "thought": 3421,
      "ĠĠĠĠĠĠĠĠĠĠĠ": 3422,
      "Ġayr": 3423,
      "Ġacknowledge": 3424,
      "inth": 3425,
      "ining": 3426,
      "iness": 3427,
      "Ġsn": 3428,
      "Ġsy": 3429,
      "Ġsed": 3430,
      "Ġsus": 3431,
      "Ġsong": 3432,
      "Ġsig": 3433,
      "Ġsalt": 3434,
      "Ġsna": 3435,
      "Ġsnare": 3436,
      "Ġseason": 3437,
      "Ġsitting": 3438,
      "erous": 3439,
      "Ġwake": 3440,
      "Ġwave": 3441,
      "Ġwater": 3442,
      "Ġwreath": 3443,
      "Ġwaving": 3444,
      "Ġhit": 3445,
      "Ġhee": 3446,
      "Ġoh": 3447,
      "Ġore": 3448,
      "Ġobl": 3449,
      "Ġobe": 3450,
      "reh": 3451,
      "Ġmir": 3452,
      "Ġmood": 3453,
      "Ġmiss": 3454,
      "Ġmaid": 3455,
      "Ġmakes": 3456,
      "Ġmeasure": 3457,
      "Ġmagn": 3458,
      "isc": 3459,
      "isit": 3460,
      "ision": 3461,
      "Ġfle": 3462,
      "Ġfem": 3463,
      "Ġfant": 3464,
      "Ġfood": 3465,
      "Ġfate": 3466,
      "Ġfame": 3467,
      "Ġfits": 3468,
      "Ġfountain": 3469,
      "Ġba": 3470,
      "Ġber": 3471,
      "Ġbru": 3472,
      "Ġband": 3473,
      "Ġbount": 3474,
      "Ġbank": 3475,
      "Ġblew": 3476,
      "Ġbones": 3477,
      "Ġbonds": 3478,
      "Ġty": 3479,
      "Ġtro": 3480,
      "Ġtest": 3481,
      "Ġtum": 3482,
      "Ġtread": 3483,
      "Ġtrod": 3484,
      "onna": 3485,
      "lla": 3486,
      "llen": 3487,
      "ena": 3488,
      "enius": 3489,
      "Ġdu": 3490,
      "Ġdea": 3491,
      "Ġdull": 3492,
      "Ġdred": 3493,
      "Ġdang": 3494,
      "Ġdying": 3495,
      "Ġdrud": 3496,
      "Ġdaughters": 3497,
      "eare": 3498,
      "eather": 3499,
      "eable": 3500,
      "eans": 3501,
      "ĠĠĠĠĠĠĠĠĠĠĠĠĠĠĠĠĠĠĠĠĠĠĠĠĠĠĠĠĠĠĠĠĠĠĠĠĠĠĠĠĠĠĠĠĠĠĠ": 3502,
      "Ġcure": 3503,
      "Ġcorn": 3504,
      "Ġcreat": 3505,
      "Ġcover": 3506,
      "Ġcrew": 3507,
      "Ġcirc": 3508,
      "Ġcounsel": 3509,
      "Ġcapital": 3510,
      "Ġcourage": 3511,
      "Ġlon": 3512,
      "Ġlat": 3513,
      "Ġlent": 3514,
      "Ġlull": 3515,
      "Ġlean": 3516,
      "Ġlift": 3517,
      "Ġleaves": 3518,
      "Ġpu": 3519,
      "Ġprom": 3520,
      "Ġport": 3521,
      "Ġpull": 3522,
      "Ġpity": 3523,
      "Ġpath": 3524,
      "Ġpaid": 3525,
      "Ġprison": 3526,
      "Ġprod": 3527,
      "Ġpowers": 3528,
      "Ġpomp": 3529,
      "Ġpierce": 3530,
      "Ġnam": 3531,
      "Ġnames": 3532,
      "ster": 3533,
      "stain": 3534,
      "sters": 3535,
      "stem": 3536,
      "ingle": 3537,
      "ingale": 3538,
      "Ġtogether": 3539,
      "anth": 3540,
      "Thrice": 3541,
      "itted": 3542,
      "arch": 3543,
      "Ġgr": 3544,
      "Ġgar": 3545,
      "Ġgone": 3546,
      "ird": 3547,
      "Ġwheel": 3548,
      "seem": 3549,
      "ĠIN": 3550,
      "ĠIvy": 3551,
      "vey": 3552,
      "che": 3553,
      "cho": 3554,
      "otes": 3555,
      "etra": 3556,
      "etimes": 3557,
      "ĠSy": 3558,
      "ĠSen": 3559,
      "ĠSil": 3560,
      "ĠSever": 3561,
      "ĠServ": 3562,
      "ĠSeat": 3563,
      "ĠSONG": 3564,
      "ĠSepul": 3565,
      "uts": 3566,
      "Ġunt": 3567,
      "Ġshow": 3568,
      "Ġsham": 3569,
      "Ġshare": 3570,
      "erend": 3571,
      "Ġstar": 3572,
      "Ġstir": 3573,
      "Ġstain": 3574,
      "Ġstru": 3575,
      "Ġstands": 3576,
      "Ġreach": 3577,
      "Ġrenown": 3578,
      "Ġeie": 3579,
      "Ġequ": 3580,
      "ales": 3581,
      "alil": 3582,
      "Ġbeyond": 3583,
      "Ġbewail": 3584,
      "ids": 3585,
      "ider": 3586,
      "urch": 3587,
      "roves": 3588,
      "ioness": 3589,
      "Ġmeer": 3590,
      "Ġyon": 3591,
      "Ġyear": 3592,
      "Ġyee": 3593,
      "Ġyoke": 3594,
      "ĠLion": 3595,
      "ĠLife": 3596,
      "ĠLike": 3597,
      "ĠLangu": 3598,
      "ilight": 3599,
      "ility": 3600,
      "ainted": 3601,
      "ourse": 3602,
      "ĠPR": 3603,
      "ĠPer": 3604,
      "ĠPaul": 3605,
      "ĠPOEM": 3606,
      "ĠPillars": 3607,
      "ĠParents": 3608,
      "Ġforc": 3609,
      "Ġforlorn": 3610,
      "ĠAx": 3611,
      "ĠAnt": 3612,
      "ĠActs": 3613,
      "ĠAyr": 3614,
      "ĠAgonistes": 3615,
      "Ġ180": 3616,
      "Ġ190": 3617,
      "ĠHon": 3618,
      "ĠHear": 3619,
      "ĠHall": 3620,
      "ĠHeath": 3621,
      "ĠHoly": 3622,
      "ĠHymn": 3623,
      "ĠHoasts": 3624,
      "allow": 3625,
      "ĠMat": 3626,
      "ĠMit": 3627,
      "ĠMay": 3628,
      "ĠMill": 3629,
      "ĠMercy": 3630,
      "Ġaside": 3631,
      "ĠCause": 3632,
      "ĠCont": 3633,
      "ĠCirce": 3634,
      "ĠGre": 3635,
      "ĠGree": 3636,
      "geous": 3637,
      "Ġvill": 3638,
      "Ġvile": 3639,
      "Ġvac": 3640,
      "Ġvows": 3641,
      "ctu": 3642,
      "ifi": 3643,
      "ifted": 3644,
      "Ġsooth": 3645,
      "ĠBl": 3646,
      "ĠBri": 3647,
      "ĠBab": 3648,
      "ĠBeast": 3649,
      "ĠBreth": 3650,
      "usband": 3651,
      "Ġspear": 3652,
      "Ġsup": 3653,
      "Ġsunk": 3654,
      "Ġsullen": 3655,
      "asters": 3656,
      "ĠTurn": 3657,
      "ĠTroph": 3658,
      "elle": 3659,
      "ĠFur": 3660,
      "ĠFirst": 3661,
      "ĠFacsim": 3662,
      "Ġchi": 3663,
      "Ġchang": 3664,
      "Ġchastity": 3665,
      "Ġcheek": 3666,
      "anto": 3667,
      "Ġunex": 3668,
      "Ġunivers": 3669,
      "Ġnecess": 3670,
      "Ġnoon": 3671,
      "ĠOx": 3672,
      "ĠEd": 3673,
      "ĠEg": 3674,
      "ĠEp": 3675,
      "ĠEx": 3676,
      "Without": 3677,
      "Ġloft": 3678,
      "Ġkiss": 3679,
      "Ġcomple": 3680,
      "Ġblow": 3681,
      "Ġblot": 3682,
      "Ġbloom": 3683,
      "olt": 3684,
      "olence": 3685,
      "ĠDragon": 3686,
      "ices": 3687,
      "iculous": 3688,
      "umb": 3689,
      "ĠWe": 3690,
      "ĠWo": 3691,
      "ĠWar": 3692,
      "ĠWill": 3693,
      "ĠWine": 3694,
      "ĠWife": 3695,
      "ĠWarri": 3696,
      "Ġfac": 3697,
      "Ġfact": 3698,
      "Ġfault": 3699,
      "Ġdecl": 3700,
      "Ġpledge": 3701,
      "eaving": 3702,
      "eavour": 3703,
      "Ġshallow": 3704,
      "Ġjoc": 3705,
      "Ġjoin": 3706,
      "Ġjealous": 3707,
      "Ġsometimes": 3708,
      "ĠNaz": 3709,
      "ĠNept": 3710,
      "ĠRight": 3711,
      "ĠRead": 3712,
      "ĠReg": 3713,
      "eads": 3714,
      "osa": 3715,
      "osyll": 3716,
      "Ġsable": 3717,
      "opy": 3718,
      "oping": 3719,
      "ounds": 3720,
      "ounded": 3721,
      "Ġthird": 3722,
      "Ġexpect": 3723,
      "Ġexperience": 3724,
      "Ġexcuse": 3725,
      "ired": 3726,
      "Ġrash": 3727,
      "Ġraign": 3728,
      "Ġradiant": 3729,
      "Ġamor": 3730,
      "rann": 3731,
      "Ġswain": 3732,
      "Ġens": 3733,
      "rint": 3734,
      "Ġproves": 3735,
      "Ġprocl": 3736,
      "Ġpropos": 3737,
      "Ġprobably": 3738,
      "abl": 3739,
      "Ġruine": 3740,
      "Ġrules": 3741,
      "Ġrural": 3742,
      "Ġrugged": 3743,
      "oyce": 3744,
      "udd": 3745,
      "ĠJust": 3746,
      "Ġearn": 3747,
      "erto": 3748,
      "Ġeverlasting": 3749,
      "ĠVerse": 3750,
      "Ġdispos": 3751,
      "Ġdisgu": 3752,
      "Ġperish": 3753,
      "acious": 3754,
      "Ġweeds": 3755,
      "Ġimag": 3756,
      "Ġimpl": 3757,
      "Ġhowever": 3758,
      "Ġoffence": 3759,
      "ccess": 3760,
      "Ġslumber": 3761,
      "Ġgreater": 3762,
      "ians": 3763,
      "ĠChastity": 3764,
      "ĠChampion": 3765,
      "ĠChurch": 3766,
      "Ġprai": 3767,
      "shood": 3768,
      "Ġadorn": 3769,
      "Ġscap": 3770,
      "wards": 3771,
      "Ġrob": 3772,
      "Ġroar": 3773,
      "Ġdeserve": 3774,
      "Ġgray": 3775,
      "Ġshouldst": 3776,
      "Ġprefer": 3777,
      "Soft": 3778,
      "lier": 3779,
      "liest": 3780,
      "Ġended": 3781,
      "Ġlastly": 3782,
      "Ġtwilight": 3783,
      "angs": 3784,
      "Ġcalls": 3785,
      "Ġevent": 3786,
      "Ġsecrets": 3787,
      "Ġguess": 3788,
      "Ġcontr": 3789,
      "Ġcontra": 3790,
      "Ġreprint": 3791,
      "ecause": 3792,
      "Ġresort": 3793,
      "Ġpoor": 3794,
      "Ġpoems": 3795,
      "Ġpresum": 3796,
      "Ġready": 3797,
      "Ġreader": 3798,
      "ĠPhoebus": 3799,
      "Ġsweetly": 3800,
      "Ġfeats": 3801,
      "Ġrestless": 3802,
      "ĠBrother": 3803,
      "Ġspells": 3804,
      "clean": 3805,
      "feit": 3806,
      "Ġhollow": 3807,
      "Ġattempt": 3808,
      "Begin": 3809,
      "Ġfarr": 3810,
      "Ġbrother": 3811,
      "Ġcouldst": 3812,
      "Ġassur": 3813,
      "Ġassail": 3814,
      "ctions": 3815,
      "ĠFair": 3816,
      "Ġlively": 3817,
      "Ġtravail": 3818,
      "Ġpurple": 3819,
      "ĠSpring": 3820,
      "Ġjoyn": 3821,
      "Ġearths": 3822,
      "ggs": 3823,
      "Ġwaies": 3824,
      "Ġhunder": 3825,
      "Ġprint": 3826,
      "Ġintent": 3827,
      "Ġintended": 3828,
      "Ġrevenge": 3829,
      "Ġreverend": 3830,
      "Ġeditions": 3831,
      "ĠOff": 3832,
      "Ġheavenly": 3833,
      "ounc": 3834,
      "Ġfalshood": 3835,
      "ĠPoet": 3836,
      "Ġvertues": 3837,
      "Ġsurround": 3838,
      "ĠHeroic": 3839,
      "Ġvision": 3840,
      "Ġvisage": 3841,
      "ĠSongs": 3842,
      "Ġconfusion": 3843,
      "overn": 3844,
      "Ġwonders": 3845,
      "Ġdistress": 3846,
      "Ġsupport": 3847,
      "Ġcompar": 3848,
      "Ġpleasing": 3849,
      "Ġpleasures": 3850,
      "Ġflowers": 3851,
      "ercise": 3852,
      "Ġdeadly": 3853,
      "Ġnatures": 3854,
      "Ġwarr": 3855,
      "Ġbeside": 3856,
      "ĠLawns": 3857,
      "Ġcheer": 3858,
      "Ġyouthful": 3859,
      "Ġfollowed": 3860,
      "Ġangry": 3861,
      "Ġanguish": 3862,
      "Ġcorrupt": 3863,
      "Ġgiven": 3864,
      "Ġadvise": 3865,
      "Ġoccurs": 3866,
      "Ġbeam": 3867,
      "Ġbeauty": 3868,
      "Ġlabours": 3869,
      "ĠSwain": 3870,
      "ĠPrimrose": 3871,
      "eeming": 3872,
      "Ġcharge": 3873,
      "Ġblindness": 3874,
      "Ġworlds": 3875,
      "Ġperfet": 3876,
      "Ġskies": 3877,
      "Ġwrite": 3878,
      "Ġodious": 3879,
      "Ġfreely": 3880,
      "Ġfrequent": 3881,
      "Ġstrict": 3882,
      "Ġstrife": 3883,
      "Ġforgive": 3884,
      "ENT": 3885,
      "ĠWhose": 3886,
      "Ġtoucht": 3887,
      "Ġnumbers": 3888,
      "Ġsurely": 3889,
      "acter": 3890,
      "spring": 3891,
      "Ġerr": 3892,
      "Ġfiery": 3893,
      "Ġdestruction": 3894,
      "Ġdiff": 3895,
      "Ġpublish": 3896,
      "Ġgrove": 3897,
      "ĠTrump": 3898,
      "Ġconceal": 3899,
      "Ġconcern": 3900,
      "Ġfaithful": 3901,
      "Ġarmed": 3902,
      "Ġwickedness": 3903,
      "Ġutter": 3904,
      "Ġharmony": 3905,
      "Ġfrail": 3906,
      "Ġnearer": 3907,
      "Ġunfold": 3908,
      "Ġridiculous": 3909,
      "Ġdeliverance": 3910,
      "IST": 3911,
      "Ġrank": 3912,
      "ĠQuire": 3913,
      "Ġacqu": 3914,
      "Ġweary": 3915,
      "Ġmusick": 3916,
      "Ġtroubl": 3917,
      "Ġcuor": 3918,
      "Ġcruel": 3919,
      "ĠIdols": 3920,
      "Wherin": 3921,
      "ĠApollo": 3922,
      "ĠMarble": 3923,
      "ĠTemples": 3924,
      "ĠSpirits": 3925,
      "SONG": 3926,
      "mbly": 3927,
      "poems": 3928,
      "Ġheave": 3929,
      "Ġheaps": 3930,
      "Ġhidden": 3931,
      "Ġmajest": 3932,
      "Ġfields": 3933,
      "Ġstrange": 3934,
      "Ġsleeping": 3935,
      "ĠSirens": 3936,
      "ĠLXXXV": 3937,
      "Ġfortune": 3938,
      "Ġliquor": 3939,
      "Ġliquid": 3940,
      "Ġseveral": 3941,
      "Ġresolv": 3942,
      "Perhaps": 3943,
      "Sweet": 3944,
      "Ġwatry": 3945,
      "Ġobscure": 3946,
      "Ġmelodious": 3947,
      "Ġbarren": 3948,
      "Ġburden": 3949,
      "Ġcrie": 3950,
      "secute": 3951,
      "Ġshapes": 3952,
      "ĠLetter": 3953,
      "ĠCourt": 3954,
      "ĠCourts": 3955,
      "ircumcis": 3956,
      "Himself": 3957,
      "Ġhurt": 3958,
      "Ġhostile": 3959,
      "Ġcross": 3960,
      "Ġpensive": 3961,
      "ĠSaintly": 3962,
      "ĠHosts": 3963,
      "Ġneglected": 3964,
      "Ġcombat": 3965,
      "Ġcomplain": 3966,
      "ĠRegain": 3967,
      "Ġgloomy": 3968,
      "Ġquestion": 3969,
      "Ġrememb": 3970,
      "Ġsupplies": 3971,
      "Ġinnocence": 3972,
      "ACE": 3973,
      "Conf": 3974,
      "binger": 3975,
      "uptial": 3976,
      "yrian": 3977,
      "Ġburning": 3978,
      "Ġurg": 3979,
      "ĠLiberty": 3980,
      "Ġspecial": 3981,
      "ĠEbrew": 3982,
      "ĠEastern": 3983,
      "ĠCherub": 3984,
      "Ġrighteousness": 3985,
      "Ġinfluence": 3986,
      "Ġmeditate": 3987,
      "ĠReligion": 3988,
      "Nature": 3989,
      "Ġapace": 3990,
      "Ġfront": 3991,
      "Ġcalam": 3992,
      "Ġcenter": 3993,
      "Ġcivil": 3994,
      "Ġceleb": 3995,
      "Ġnerves": 3996,
      "Ġnurse": 3997,
      "ĠSacri": 3998,
      "ĠScepter": 3999,
      "elestial": 4000,
      "Ġshadows": 4001,
      "Ġrebell": 4002,
      "Ġmemory": 4003,
      "ĠPublic": 4004,
      "Ġblossom": 4005,
      "ĠNightingale": 4006,
      "ĠRuth": 4007,
      "iglia": 4008,
      "Ġenthron": 4009,
      "ĠJacobs": 4010,
      "Ġpursue": 4011,
      "Ġforetold": 4012,
      "Besides": 4013,
      "Since": 4014,
      "labour": 4015,
      "Ġsigne": 4016,
      "Ġsnares": 4017,
      "Ġcreatures": 4018,
      "ĠLanguage": 4019,
      "ĠTrophies": 4020,
      "ĠFacsimile": 4021,
      "Ġlofty": 4022,
      "ĠNeptune": 4023,
      "Ġproclaim": 4024,
      ".--": 4025,
      "18": 4026,
      "24": 4027,
      "38": 4028,
      "47": 4029,
      "AG": 4030,
      "Ah": 4031,
      "Ay": 4032,
      "App": 4033,
      "Bet": 4034,
      "Bear": 4035,
      "Brought": 4036,
      "CA": 4037,
      "Came": 4038,
      "Cons": 4039,
      "CHE": 4040,
      "Cont": 4041,
      "Da": 4042,
      "Do": 4043,
      "Dro": 4044,
      "Draw": 4045,
      "Divine": 4046,
      "End": 4047,
      "Ere": 4048,
      "Fl": 4049,
      "Fair": 4050,
      "Follow": 4051,
      "Gent": 4052,
      "Gain": 4053,
      "Gave": 4054,
      "Great": 4055,
      "HY": 4056,
      "Hear": 4057,
      "Hid": 4058,
      "Hard": 4059,
      "Heav": 4060,
      "Hail": 4061,
      "IB": 4062,
      "IC": 4063,
      "IM": 4064,
      "IR": 4065,
      "Ir": 4066,
      "Int": 4067,
      "Imm": 4068,
      "Just": 4069,
      "LE": 4070,
      "Lord": 4071,
      "Look": 4072,
      "Must": 4073,
      "Most": 4074,
      "Much": 4075,
      "Mean": 4076,
      "Mirth": 4077,
      "Masson": 4078,
      "NG": 4079,
      "Night": 4080,
      "Nymph": 4081,
      "Next": 4082,
      "OL": 4083,
      "OP": 4084,
      "PH": 4085,
      "Ph": 4086,
      "RY": 4087,
      "Return": 4088,
      "ST": 4089,
      "Set": 4090,
      "Sent": 4091,
      "Sto": 4092,
      "Sec": 4093,
      "TA": 4094,
      "TH": 4095,
      "TO": 4096,
      "Tis": 4097,
      "Trag": 4098,
      "UM": 4099,
      "Up": 4100,
      "Unt": 4101,
      "Vertue": 4102,
      "XI": 4103,
      "aus": 4104,
      "after": 4105,
      "aeus": 4106,
      "boosom": 4107,
      "cin": 4108,
      "can": 4109,
      "cal": 4110,
      "cly": 4111,
      "cest": 4112,
      "cont": 4113,
      "der": 4114,
      "dra": 4115,
      "day": 4116,
      "eer": 4117,
      "een": 4118,
      "ege": 4119,
      "eated": 4120,
      "fill": 4121,
      "fort": 4122,
      "fice": 4123,
      "fect": 4124,
      "gn": 4125,
      "gan": 4126,
      "goes": 4127,
      "how": 4128,
      "hair": 4129,
      "iel": 4130,
      "iam": 4131,
      "ially": 4132,
      "jud": 4133,
      "kin": 4134,
      "kie": 4135,
      "known": 4136,
      "land": 4137,
      "lip": 4138,
      "lause": 4139,
      "more": 4140,
      "mbl": 4141,
      "maid": 4142,
      "net": 4143,
      "oz": 4144,
      "oil": 4145,
      "oits": 4146,
      "par": 4147,
      "pra": 4148,
      "poral": 4149,
      "rour": 4150,
      "rist": 4151,
      "rons": 4152,
      "rated": 4153,
      "rrata": 4154,
      "sse": 4155,
      "sper": 4156,
      "safe": 4157,
      "ta": 4158,
      "ti": 4159,
      "tor": 4160,
      "tle": 4161,
      "ui": 4162,
      "uce": 4163,
      "ura": 4164,
      "uall": 4165,
      "uff": 4166,
      "ualt": 4167,
      "vere": 4168,
      "vil": 4169,
      "ws": 4170,
      "wor": 4171,
      "worn": 4172,
      "water": 4173,
      "ys": 4174,
      "yre": 4175,
      "zza": 4176,
      "Ġ?": 4177,
      "Ġx": 4178,
      "Ġz": 4179,
      "Ġes": 4180,
      "Ġess": 4181,
      "Ġeld": 4182,
      "that": 4183,
      "thrown": 4184,
      "Ġthri": 4185,
      "Ġthither": 4186,
      "Ġthank": 4187,
      "Ġthrall": 4188,
      "Ġtherfore": 4189,
      "ĠĠĠĠĠĠĠĠĠ": 4190,
      "Ġau": 4191,
      "Ġav": 4192,
      "Ġable": 4193,
      "Ġaust": 4194,
      "inc": 4195,
      "inv": 4196,
      "inter": 4197,
      "inish": 4198,
      "Ġsim": 4199,
      "Ġsine": 4200,
      "Ġsqu": 4201,
      "Ġsick": 4202,
      "Ġsings": 4203,
      "Ġsons": 4204,
      "Ġsix": 4205,
      "erable": 4206,
      "ermin": 4207,
      "nde": 4208,
      "Ġwan": 4209,
      "Ġwet": 4210,
      "Ġwid": 4211,
      "Ġwest": 4212,
      "Ġwak": 4213,
      "Ġhell": 4214,
      "Ġhind": 4215,
      "Ġhol": 4216,
      "Ġhue": 4217,
      "Ġhours": 4218,
      "Ġhealth": 4219,
      "Ġhopes": 4220,
      "Ġocchi": 4221,
      "rel": 4222,
      "rear": 4223,
      "rent": 4224,
      "rease": 4225,
      "rels": 4226,
      "ouns": 4227,
      "Ġmate": 4228,
      "Ġmeas": 4229,
      "Ġmag": 4230,
      "Ġmild": 4231,
      "Ġmia": 4232,
      "Ġmother": 4233,
      "Ġmelt": 4234,
      "Ġmerc": 4235,
      "Ġmatter": 4236,
      "Ġmountains": 4237,
      "Ġmoral": 4238,
      "Ġmorrow": 4239,
      "isse": 4240,
      "isper": 4241,
      "Ġfing": 4242,
      "Ġfut": 4243,
      "Ġfam": 4244,
      "Ġful": 4245,
      "Ġfun": 4246,
      "Ġfright": 4247,
      "Ġfestiv": 4248,
      "Ġban": 4249,
      "Ġble": 4250,
      "Ġbent": 4251,
      "Ġbeast": 4252,
      "Ġbalm": 4253,
      "Ġburi": 4254,
      "Ġbane": 4255,
      "Ġbott": 4256,
      "Ġburst": 4257,
      "Ġbitter": 4258,
      "Ġtal": 4259,
      "Ġtall": 4260,
      "Ġtree": 4261,
      "Ġtang": 4262,
      "Ġturb": 4263,
      "Ġteach": 4264,
      "Ġtresses": 4265,
      "esh": 4266,
      "esie": 4267,
      "ona": 4268,
      "onc": 4269,
      "onious": 4270,
      "orable": 4271,
      "orgeous": 4272,
      "atly": 4273,
      "atrous": 4274,
      "lls": 4275,
      "llic": 4276,
      "eno": 4277,
      "enes": 4278,
      "enry": 4279,
      "Ġdin": 4280,
      "Ġdom": 4281,
      "Ġdir": 4282,
      "Ġdil": 4283,
      "Ġdate": 4284,
      "Ġdare": 4285,
      "Ġdry": 4286,
      "Ġdale": 4287,
      "Ġdrew": 4288,
      "Ġdank": 4289,
      "Ġdamp": 4290,
      "Ġdaunt": 4291,
      "Ġdash": 4292,
      "Ġdungeon": 4293,
      "Ġduro": 4294,
      "Ġdrear": 4295,
      "Ġcra": 4296,
      "Ġcam": 4297,
      "Ġcell": 4298,
      "Ġcost": 4299,
      "Ġcoy": 4300,
      "Ġcens": 4301,
      "Ġcours": 4302,
      "Ġcase": 4303,
      "Ġcircum": 4304,
      "Ġcords": 4305,
      "Ġcelestial": 4306,
      "Ġlord": 4307,
      "Ġlake": 4308,
      "Ġlack": 4309,
      "Ġlang": 4310,
      "Ġlatter": 4311,
      "Ġluck": 4312,
      "Ġlately": 4313,
      "Ġlarge": 4314,
      "Ġlavish": 4315,
      "Ġph": 4316,
      "Ġpet": 4317,
      "Ġpil": 4318,
      "Ġpost": 4319,
      "Ġpeal": 4320,
      "Ġpause": 4321,
      "Ġpec": 4322,
      "Ġpett": 4323,
      "Ġprot": 4324,
      "Ġpangs": 4325,
      "Ġnak": 4326,
      "Ġnaught": 4327,
      "Ġnought": 4328,
      "Ġnurs": 4329,
      "stal": 4330,
      "stood": 4331,
      "strous": 4332,
      "strate": 4333,
      "stantine": 4334,
      "inguish": 4335,
      "Ġtop": 4336,
      "Ġinh": 4337,
      "Ġinfer": 4338,
      "Ġinmost": 4339,
      "Ġinform": 4340,
      "Ġiniqu": 4341,
      "Thine": 4342,
      "edly": 4343,
      "edition": 4344,
      "oment": 4345,
      "itent": 4346,
      "itable": 4347,
      "arite": 4348,
      "ithe": 4349,
      "Ġgate": 4350,
      "Ġgran": 4351,
      "Ġgrown": 4352,
      "Ġgates": 4353,
      "Ġgener": 4354,
      "ceed": 4355,
      "ceit": 4356,
      "leeve": 4357,
      "vels": 4358,
      "chus": 4359,
      "chaste": 4360,
      "chioness": 4361,
      "Ġhap": 4362,
      "Ġhaples": 4363,
      "ram": 4364,
      "rand": 4365,
      "rais": 4366,
      "raim": 4367,
      "rass": 4368,
      "ĠSer": 4369,
      "ĠSion": 4370,
      "ĠSnow": 4371,
      "elie": 4372,
      "rib": 4373,
      "ril": 4374,
      "rious": 4375,
      "rivi": 4376,
      "Ġuph": 4377,
      "Ġuseless": 4378,
      "Ġshook": 4379,
      "Ġshady": 4380,
      "Ġshifts": 4381,
      "Ġshrine": 4382,
      "earch": 4383,
      "ereft": 4384,
      "amor": 4385,
      "ameld": 4386,
      "amber": 4387,
      "amily": 4388,
      "Ġsto": 4389,
      "Ġstor": 4390,
      "Ġstro": 4391,
      "Ġstead": 4392,
      "Ġstage": 4393,
      "Ġstern": 4394,
      "Ġstub": 4395,
      "Ġstole": 4396,
      "Ġsteel": 4397,
      "Ġstorm": 4398,
      "Ġstately": 4399,
      "Ġrever": 4400,
      "Ġregain": 4401,
      "Ġrender": 4402,
      "Ġrecom": 4403,
      "Ġrejoy": 4404,
      "Ġeies": 4405,
      "alf": 4406,
      "alms": 4407,
      "Ġbeleeve": 4408,
      "immer": 4409,
      "lys": 4410,
      "urg": 4411,
      "urp": 4412,
      "enty": 4413,
      "ented": 4414,
      "asions": 4415,
      "vert": 4416,
      "roll": 4417,
      "Ġnoted": 4418,
      "Ġyea": 4419,
      "ĠLo": 4420,
      "ĠLill": 4421,
      "ĠLocks": 4422,
      "ĠLuc": 4423,
      "ĠLAT": 4424,
      "ĠLeaves": 4425,
      "ĠLORD": 4426,
      "ĠLatin": 4427,
      "Whilst": 4428,
      "illions": 4429,
      "esta": 4430,
      "esting": 4431,
      "estic": 4432,
      "ils": 4433,
      "iling": 4434,
      "ilot": 4435,
      "ilous": 4436,
      "ĠPra": 4437,
      "ĠPers": 4438,
      "ĠPred": 4439,
      "ĠPilot": 4440,
      "Ġforms": 4441,
      "ĠAG": 4442,
      "ĠAgain": 4443,
      "ĠAeg": 4444,
      "ĠAutograph": 4445,
      "Ġ19": 4446,
      "ĠHes": 4447,
      "ĠHell": 4448,
      "ĠHerd": 4449,
      "ĠHope": 4450,
      "ĠHouse": 4451,
      "ĠHair": 4452,
      "ĠHEN": 4453,
      "allel": 4454,
      "ĠMS": 4455,
      "ĠMa": 4456,
      "ĠMe": 4457,
      "ĠMin": 4458,
      "ĠMorn": 4459,
      "ĠMount": 4460,
      "ĠMountain": 4461,
      "ĠMountains": 4462,
      "ĠMAS": 4463,
      "ĠMasson": 4464,
      "ĠMarriage": 4465,
      "Ġascend": 4466,
      "orest": 4467,
      "ĠCry": 4468,
      "ĠCave": 4469,
      "ĠCows": 4470,
      "ĠCoun": 4471,
      "ĠColl": 4472,
      "ĠCup": 4473,
      "Ġallow": 4474,
      "Took": 4475,
      "ĠGu": 4476,
      "ĠGenius": 4477,
      "ĠGovern": 4478,
      "Ġorn": 4479,
      "rust": 4480,
      "rung": 4481,
      "runk": 4482,
      "Ġvent": 4483,
      "Ġvig": 4484,
      "Ġvag": 4485,
      "Ġvap": 4486,
      "Ġvirgin": 4487,
      "Ġvoyce": 4488,
      "ctar": 4489,
      "ification": 4490,
      "Ġsov": 4491,
      "Ġsoyl": 4492,
      "ĠBond": 4493,
      "ĠBac": 4494,
      "ĠBirth": 4495,
      "ĠBeh": 4496,
      "Ġherds": 4497,
      "Ġspot": 4498,
      "Ġspun": 4499,
      "Ġspake": 4500,
      "Ġspoke": 4501,
      "Ġspeaks": 4502,
      "Ġspangled": 4503,
      "Ġsphear": 4504,
      "Ġitself": 4505,
      "ordon": 4506,
      "Ġsum": 4507,
      "Ġsuck": 4508,
      "Ġsuper": 4509,
      "Ġsubs": 4510,
      "Ġsuoi": 4511,
      "aster": 4512,
      "astle": 4513,
      "astick": 4514,
      "ĠTO": 4515,
      "ĠTor": 4516,
      "ĠTill": 4517,
      "ĠTray": 4518,
      "ĠTowers": 4519,
      "ĠTomb": 4520,
      "ells": 4521,
      "ĠFort": 4522,
      "ĠFool": 4523,
      "ĠFoes": 4524,
      "ĠFamily": 4525,
      "respond": 4526,
      "Ġcha": 4527,
      "Ġcho": 4528,
      "Ġchill": 4529,
      "Ġchain": 4530,
      "Ġchime": 4531,
      "Ġchuse": 4532,
      "emph": 4533,
      "empl": 4534,
      "anti": 4535,
      "antle": 4536,
      "Ġunst": 4537,
      "Ġunite": 4538,
      "Ġunsh": 4539,
      "Ġunlock": 4540,
      "Ġunseen": 4541,
      "Ġunclean": 4542,
      "Ġheat": 4543,
      "Ġheir": 4544,
      "Ġneat": 4545,
      "Ġneither": 4546,
      "Ġnectar": 4547,
      "istrat": 4548,
      "oseph": 4549,
      "ĠON": 4550,
      "phear": 4551,
      "phraim": 4552,
      "ĠED": 4553,
      "ĠEm": 4554,
      "ĠEth": 4555,
      "ĠEnd": 4556,
      "ĠEle": 4557,
      "ĠEld": 4558,
      "ĠEur": 4559,
      "ĠEars": 4560,
      "ĠEev": 4561,
      "ĠErrata": 4562,
      "ĠElys": 4563,
      "ĠEphraim": 4564,
      "Within": 4565,
      "ptuous": 4566,
      "Ġknot": 4567,
      "Ġlik": 4568,
      "Ġliv": 4569,
      "Ġlives": 4570,
      "Ġblown": 4571,
      "Ġblank": 4572,
      "olves": 4573,
      "ulse": 4574,
      "ulsion": 4575,
      "uliar": 4576,
      "ĠDa": 4577,
      "ĠDian": 4578,
      "ĠDalil": 4579,
      "ending": 4580,
      "Ġconv": 4581,
      "icount": 4582,
      "ummer": 4583,
      "ustrious": 4584,
      "ĠWis": 4585,
      "ĠWest": 4586,
      "ĠWool": 4587,
      "ĠWinch": 4588,
      "Ġdeity": 4589,
      "Ġdeceiv": 4590,
      "Ġdeceit": 4591,
      "Ġplea": 4592,
      "unk": 4593,
      "uns": 4594,
      "Ġjoint": 4595,
      "Ġflatter": 4596,
      "Ġflesh": 4597,
      "Ġsomthing": 4598,
      "ĠNor": 4599,
      "ĠNay": 4600,
      "ishes": 4601,
      "ĠRE": 4602,
      "ĠRh": 4603,
      "ĠRoy": 4604,
      "ĠRocks": 4605,
      "ĠRob": 4606,
      "ĠReason": 4607,
      "ĠRoses": 4608,
      "Ġhearth": 4609,
      "Ġupright": 4610,
      "osen": 4611,
      "osing": 4612,
      "Ġwillingly": 4613,
      "Ġsaf": 4614,
      "Ġsav": 4615,
      "ĠThom": 4616,
      "ĠThine": 4617,
      "augh": 4618,
      "Ġsees": 4619,
      "Ġseest": 4620,
      "Ġseven": 4621,
      "Ġthirty": 4622,
      "orning": 4623,
      "Ġglist": 4624,
      "Ġglance": 4625,
      "Ġglowing": 4626,
      "Ġstreet": 4627,
      "Ġworship": 4628,
      "Ġsheild": 4629,
      "Ġmans": 4630,
      "Ġarise": 4631,
      "Ġargu": 4632,
      "Ġarched": 4633,
      "Ġexec": 4634,
      "Ġexempt": 4635,
      "Ġexcept": 4636,
      "Ġray": 4637,
      "Ġrare": 4638,
      "Ġrapt": 4639,
      "Ġalter": 4640,
      "Ġalike": 4641,
      "igious": 4642,
      "Ġamain": 4643,
      "Ġamend": 4644,
      "Ġamaze": 4645,
      "ickle": 4646,
      "Ġencom": 4647,
      "Ġenchant": 4648,
      "Ġenvy": 4649,
      "aker": 4650,
      "rink": 4651,
      "Ġproport": 4652,
      "Ġprosecute": 4653,
      "Ġprosper": 4654,
      "Ġabhor": 4655,
      "Ġwherein": 4656,
      "Ġwherefore": 4657,
      "Fors": 4658,
      "Ġseeing": 4659,
      "Ġclust": 4660,
      "Ġrum": 4661,
      "ĠJoseph": 4662,
      "Ġevermore": 4663,
      "ĠVale": 4664,
      "ĠVicount": 4665,
      "ages": 4666,
      "Ġdisease": 4667,
      "Ġdissol": 4668,
      "Ġhighth": 4669,
      "Ġhigher": 4670,
      "Ġhighly": 4671,
      "Ġpermitted": 4672,
      "Ġperilous": 4673,
      "ploy": 4674,
      "ĠHeavens": 4675,
      "acc": 4676,
      "acy": 4677,
      "acinth": 4678,
      "Ġ**": 4679,
      "Ġquiet": 4680,
      "Ġknowst": 4681,
      "ĠThee": 4682,
      "ĠThem": 4683,
      "Ġimit": 4684,
      "Ġtruly": 4685,
      "Ġoffended": 4686,
      "Ġslide": 4687,
      "Ġslip": 4688,
      "Ġslack": 4689,
      "Ġslavish": 4690,
      "Ġgreatest": 4691,
      "Ġverd": 4692,
      "ilty": 4693,
      "reep": 4694,
      "Ġotherwise": 4695,
      "ĠChance": 4696,
      "ĠChrist": 4697,
      "Ġyeer": 4698,
      "Ġyeers": 4699,
      "Ġpraier": 4700,
      "Ġpraises": 4701,
      "Ġadm": 4702,
      "Ġadore": 4703,
      "Ġadde": 4704,
      "Ġroom": 4705,
      "Ġroot": 4706,
      "Ġrosie": 4707,
      "Ġbread": 4708,
      "Ġ670": 4709,
      "Ġ680": 4710,
      "Ġlighter": 4711,
      "Ġgrain": 4712,
      "Ġgracious": 4713,
      "Ġshoulders": 4714,
      "Ġsomething": 4715,
      "Ġhonest": 4716,
      "Ġfairly": 4717,
      "Heb": 4718,
      "Ġbestow": 4719,
      "Ġprep": 4720,
      "Ġprevail": 4721,
      "Soon": 4722,
      "reader": 4723,
      "ĠState": 4724,
      "Ġheadlong": 4725,
      "Ġlasting": 4726,
      "Ġappears": 4727,
      "Ġappreh": 4728,
      "Ġtwain": 4729,
      "Ġtwisted": 4730,
      "Ġtrial": 4731,
      "Ġtripp": 4732,
      "Ġoverthrown": 4733,
      "Ġ200": 4734,
      "Ġfoundation": 4735,
      "Ġguile": 4736,
      "Ġunderstood": 4737,
      "Ġremor": 4738,
      "Ġremov": 4739,
      "Ġcontin": 4740,
      "ieri": 4741,
      "Ġpowerful": 4742,
      "ancy": 4743,
      "ances": 4744,
      "ancers": 4745,
      "Ġrepent": 4746,
      "ecy": 4747,
      "yme": 4748,
      "Ġsinging": 4749,
      "Ġresist": 4750,
      "aven": 4751,
      "avour": 4752,
      "Ġpoem": 4753,
      "Ġsweetest": 4754,
      "Ġfeed": 4755,
      "Ġleg": 4756,
      "ĠBrook": 4757,
      "Ġ22": 4758,
      "Ġ25": 4759,
      "Ġ220": 4760,
      "Ġ210": 4761,
      "Ġ290": 4762,
      "Ġfinding": 4763,
      "Ġcommend": 4764,
      "Ġcommands": 4765,
      "Ġcommitted": 4766,
      "Ġkeeps": 4767,
      "Many": 4768,
      "Ġbetween": 4769,
      "Ġattention": 4770,
      "what": 4771,
      "when": 4772,
      "Ġminds": 4773,
      "Ġbroke": 4774,
      "Ġgoes": 4775,
      "Ġassay": 4776,
      "Ġassign": 4777,
      "Ġassaul": 4778,
      "Ġassault": 4779,
      "inters": 4780,
      "Ġsincer": 4781,
      "emption": 4782,
      "Should": 4783,
      "Ġtrains": 4784,
      "Ġpurpos": 4785,
      "Ġpursu": 4786,
      "Ġpassion": 4787,
      "Ġjoyes": 4788,
      "Ġimport": 4789,
      "Ġimpos": 4790,
      "Speak": 4791,
      "Ġenters": 4792,
      "Ġlowest": 4793,
      "ĠAmar": 4794,
      "Ġrightly": 4795,
      "ĠPhiloso": 4796,
      "Unless": 4797,
      "ggi": 4798,
      "Ġrod": 4799,
      "Ġafford": 4800,
      "ĠSheep": 4801,
      "ĠShakesp": 4802,
      "cription": 4803,
      "Ġhuge": 4804,
      "Ġintend": 4805,
      "Ġservil": 4806,
      "Ġservant": 4807,
      "Ġservitude": 4808,
      "Ġ810": 4809,
      "Ġ880": 4810,
      "Ġheavy": 4811,
      "Ġdiam": 4812,
      "Ġcounter": 4813,
      "Ġ760": 4814,
      "Ġsorry": 4815,
      "Ġsorrows": 4816,
      "Ġsurcharg": 4817,
      "Ġsurpris": 4818,
      "Ġsurvey": 4819,
      "Ġembra": 4820,
      "Ġvisited": 4821,
      "Ġconsum": 4822,
      "Ġconsort": 4823,
      "Ġconscience": 4824,
      "Comus": 4825,
      "EST": 4826,
      "Still": 4827,
      "Ġdearly": 4828,
      "Ġconfin": 4829,
      "Ġconfess": 4830,
      "Ġconfus": 4831,
      "Ġconfidence": 4832,
      "Ġafterwards": 4833,
      "Ġsaddest": 4834,
      "Ġdisturb": 4835,
      "Ġleaf": 4836,
      "Ġleague": 4837,
      "Ġinfli": 4838,
      "ĠAltar": 4839,
      "Ġcompany": 4840,
      "Ġpleasant": 4841,
      "rench": 4842,
      "Ġpersons": 4843,
      "Ġnative": 4844,
      "Ġwarbled": 4845,
      "Ġwarbling": 4846,
      "Ġwanted": 4847,
      "Ġlearnt": 4848,
      "Ġgrim": 4849,
      "Ġstrain": 4850,
      "ĠLawes": 4851,
      "Ġjudgment": 4852,
      "Ġyouthfull": 4853,
      "ixed": 4854,
      "Ġii": 4855,
      "ĠĠĠĠĠĠĠĠĠĠĠĠĠ": 4856,
      "Ġwander": 4857,
      "Ġhelpless": 4858,
      "Ġtransl": 4859,
      "Ġtransform": 4860,
      "Ġcorporal": 4861,
      "Ġadvent": 4862,
      "Ġadvanc": 4863,
      "Ġsmoak": 4864,
      "1673": 4865,
      "Ġmetre": 4866,
      "Ġboosom": 4867,
      "ĠSolemn": 4868,
      "ĠSword": 4869,
      "ĠProse": 4870,
      "ĠMuses": 4871,
      "Ġuncouth": 4872,
      "Ġuncessant": 4873,
      "Ġuncircumcis": 4874,
      "Ġworthy": 4875,
      "Ġworthiest": 4876,
      "ORACE": 4877,
      "credible": 4878,
      "Ġsky": 4879,
      "Ġwritt": 4880,
      "Ġbowr": 4881,
      "otton": 4882,
      "ottage": 4883,
      "Ġforgot": 4884,
      "Ġbreathing": 4885,
      "ĠKingdom": 4886,
      "Ġroul": 4887,
      "Ġdrove": 4888,
      "Ġlisten": 4889,
      "etters": 4890,
      "ĠFlocks": 4891,
      "ĠFlowers": 4892,
      "ATION": 4893,
      "eys": 4894,
      "guided": 4895,
      "rateful": 4896,
      "ĠUnto": 4897,
      "Ġerrand": 4898,
      "Ġestate": 4899,
      "Ġmidst": 4900,
      "Ġmidnight": 4901,
      "Ġbuon": 4902,
      "Ġbuilt": 4903,
      "Ġbuild": 4904,
      "Ġdestin": 4905,
      "Ġcertainly": 4906,
      "Ġlaws": 4907,
      "Ġpublick": 4908,
      "Ġinvite": 4909,
      "Ġstrongest": 4910,
      "Ġrecorded": 4911,
      "Ġredemption": 4912,
      "Ġrelie": 4913,
      "ĠPlut": 4914,
      "ĠOrpheus": 4915,
      "Ġbloody": 4916,
      "Ġfaithfull": 4917,
      "Ġdevout": 4918,
      "Ġdevotion": 4919,
      "Ġseats": 4920,
      "apha": 4921,
      "Ġwoe": 4922,
      "Ġwoo": 4923,
      "Ġmeant": 4924,
      "Ġfrailty": 4925,
      "Ġtua": 4926,
      "Ġtufted": 4927,
      "ĠConquer": 4928,
      "ĠConstantine": 4929,
      "Ġvalour": 4930,
      "Ġvalue": 4931,
      "Ġchiefly": 4932,
      "Ġblessing": 4933,
      "ĠWorks": 4934,
      "ĠNoble": 4935,
      "Ġgladly": 4936,
      "Alas": 4937,
      "Ġrang": 4938,
      "Ġranks": 4939,
      "Ġagen": 4940,
      "Ġmonosyll": 4941,
      "Ġmonstrous": 4942,
      "Ġmusing": 4943,
      "Ġbrand": 4944,
      "Ġtemple": 4945,
      "Ġtempest": 4946,
      "Ġcui": 4947,
      "Ġcrude": 4948,
      "Ġinnum": 4949,
      "Ġbegan": 4950,
      "ĠAngels": 4951,
      "ĠMarchioness": 4952,
      "ĠDelph": 4953,
      "Ġrichest": 4954,
      "Ġfirmament": 4955,
      "Ġmiseries": 4956,
      "Ġreturning": 4957,
      "Ġafflict": 4958,
      "ĠYouth": 4959,
      "Ġobject": 4960,
      "Ġmoan": 4961,
      "Ġmoist": 4962,
      "Ġcondition": 4963,
      "Ġcondemn": 4964,
      "Ġinchanting": 4965,
      "Ġinchantments": 4966,
      "ĠHebe": 4967,
      "ĠGraces": 4968,
      "ĠBefore": 4969,
      "Ġspreads": 4970,
      "Ġunpar": 4971,
      "aunting": 4972,
      "Ġexceed": 4973,
      "Ġviolent": 4974,
      "Amongst": 4975,
      "pitaph": 4976,
      "Ġsensual": 4977,
      "Ġsensualt": 4978,
      "Ġweapon": 4979,
      "Ġdores": 4980,
      "Ġpronouns": 4981,
      "Ġbecome": 4982,
      "rophe": 4983,
      "Ġvanqu": 4984,
      "Ġprovidence": 4985,
      "ĠJoves": 4986,
      "Ġpretious": 4987,
      "Ġresolution": 4988,
      "Ġcorrection": 4989,
      "ĠPriests": 4990,
      "ique": 4991,
      "Ġrings": 4992,
      "Ġthickest": 4993,
      "Ġwaters": 4994,
      "Ġwounds": 4995,
      "Ġoppress": 4996,
      "Ġmelancholy": 4997,
      "Ġbooks": 4998,
      "Ġcrime": 4999,
      "Ġpenitent": 5000,
      "Ġshape": 5001,
      "ĠPalest": 5002,
      "ĠPalace": 5003,
      "rupted": 5004,
      "ĠFriends": 5005,
      "ĠGoddess": 5006,
      "ĠNature": 5007,
      "ĠNativity": 5008,
      "Ġ1637": 5009,
      "ĠJudge": 5010,
      "ĠJudah": 5011,
      "Ġdismal": 5012,
      "ĠInfant": 5013,
      "ĠAmongst": 5014,
      "Smo": 5015,
      "Ġwedlock": 5016,
      "Ġwitness": 5017,
      "Ġweeping": 5018,
      "Ġhills": 5019,
      "Ġdamsel": 5020,
      "Ġcarry": 5021,
      "Ġpensieri": 5022,
      "ĠSphear": 5023,
      "ĠLaure": 5024,
      "ĠAsses": 5025,
      "ĠHills": 5026,
      "ĠMagistrat": 5027,
      "ĠBracly": 5028,
      "Ġcharmed": 5029,
      "Ġneglect": 5030,
      "ummers": 5031,
      "Ġplainly": 5032,
      "Ġexploits": 5033,
      "Ġexactly": 5034,
      "Ġguilty": 5035,
      "Ġremember": 5036,
      "Ġbrooding": 5037,
      "Ġsupplication": 5038,
      "Ġinnocent": 5039,
      "Ġneighbourhood": 5040,
      "Blind": 5041,
      "Enter": 5042,
      "correspond": 5043,
      "herit": 5044,
      "Ġsatisfi": 5045,
      "Ġmassie": 5046,
      "Ġbranches": 5047,
      "Ġbattel": 5048,
      "Ġdetermin": 5049,
      "Ġdrink": 5050,
      "Ġdrinks": 5051,
      "Ġdishonour": 5052,
      "Ġeeven": 5053,
      "ĠPresident": 5054,
      "Ġforsook": 5055,
      "ĠHyacinth": 5056,
      "ĠConscience": 5057,
      "ĠGentiles": 5058,
      "Ġspreds": 5059,
      "ĠTimna": 5060,
      "Ġloathsom": 5061,
      "ĠDoct": 5062,
      "Ġenvious": 5063,
      "ĠChariot": 5064,
      "Ġmisprint": 5065,
      "Ġmisprints": 5066,
      "Ġindignities": 5067,
      "Ġconstrain": 5068,
      "Ġemphasis": 5069,
      "Ġmurmurs": 5070,
      "Young": 5071,
      "consum": 5072,
      "follows": 5073,
      "Ġrises": 5074,
      "Ġthreatn": 5075,
      "Ġsighs": 5076,
      "Ġmatchless": 5077,
      "Ġfatal": 5078,
      "Ġfeeble": 5079,
      "Ġdwels": 5080,
      "Ġeffect": 5081,
      "ĠLadies": 5082,
      "ĠMelancholy": 5083,
      "Ġspeech": 5084,
      "ĠTwo": 5085,
      "Ġwasht": 5086,
      "ulgar": 5087,
      "ĠDeitie": 5088,
      "ĠWomen": 5089,
      "Ġprophane": 5090,
      "Ġovertake": 5091,
      "Ġmischief": 5092,
      "Ġimportunity": 5093,
      "Ġentertainment": 5094,
      "Ġvictorious": 5095,
      "Ġperswade": 5096,
      "Ġadvantage": 5097,
      "Ġfreedom": 5098,
      "ĠEnemies": 5099,
      "Afford": 5100,
      "Paradise": 5101,
      "handed": 5102,
      "Ġsystem": 5103,
      "Ġobey": 5104,
      "Ġfemale": 5105,
      "Ġfantastick": 5106,
      "Ġbaits": 5107,
      "Ġtestifie": 5108,
      "Ġdrudge": 5109,
      "Ġcircle": 5110,
      "Ġlonely": 5111,
      "Ġlatest": 5112,
      "Ġprompt": 5113,
      "Ġgrind": 5114,
      "ĠPOEMS": 5115,
      "ĠHeathen": 5116,
      "Ġvacant": 5117,
      "ĠBride": 5118,
      "ĠBrethren": 5119,
      "Ġuniversal": 5120,
      "Ġcompleat": 5121,
      "umbring": 5122,
      "ĠWootton": 5123,
      "Ġjocond": 5124,
      "ĠNazarite": 5125,
      "ĠReader": 5126,
      "ĠRegions": 5127,
      "Ġensnare": 5128,
      "ĠJustice": 5129,
      "Ġearnest": 5130,
      "Ġdisguise": 5131,
      "Ġimagin": 5132,
      "Ġscape": 5133,
      "Ġcontradi": 5134,
      "Ġhunderd": 5135,
      "ĠOfficer": 5136,
      "Ġdiffus": 5137,
      "Ġremembrance": 5138,
      "Ġcelebrate": 5139,
      "Gainst": 5140,
      "Ġsinews": 5141,
      "Ġfulfill": 5142,
      "Ġbottom": 5143,
      "Ġdomestic": 5144,
      "Ġdilig": 5145,
      "Ġlanguish": 5146,
      "Ġpeculiar": 5147,
      "Ġpetty": 5148,
      "Ġprotect": 5149,
      "Ġnaked": 5150,
      "Ġrejoyce": 5151,
      "ĠAegypt": 5152,
      "ĠHENRY": 5153,
      "ĠBehold": 5154,
      "ĠDalila": 5155,
      "ĠWoolf": 5156,
      "ĠWinchester": 5157,
      "ĠRoyal": 5158,
      "Ġsincerely": 5159,
      "ĠPhilosoph": 5160,
      "ĠShakespear": 5161,
      "Ġmonosyllables": 5162,
      "ĠMagistrates": 5163,
      "!)": 5164,
      "',": 5165,
      "'m": 5166,
      "),": 5167,
      ".)": 5168,
      ".,": 5169,
      "43": 5170,
      "49": 5171,
      "67": 5172,
      "71": 5173,
      "94": 5174,
      "97": 5175,
      ":--": 5176,
      "AH": 5177,
      "AW": 5178,
      "Ap": 5179,
      "Ang": 5180,
      "Acc": 5181,
      "Bin": 5182,
      "Bre": 5183,
      "Bea": 5184,
      "Bid": 5185,
      "Bro": 5186,
      "Best": 5187,
      "Bore": 5188,
      "Bring": 5189,
      "Bitter": 5190,
      "Bearing": 5191,
      "Brut": 5192,
      "BLES": 5193,
      "Because": 5194,
      "CT": 5195,
      "Cour": 5196,
      "Come": 5197,
      "Cyri": 5198,
      "Cosi": 5199,
      "Castle": 5200,
      "Di": 5201,
      "Des": 5202,
      "Dri": 5203,
      "Dang": 5204,
      "Diss": 5205,
      "Dev": 5206,
      "Dwell": 5207,
      "DER": 5208,
      "Didst": 5209,
      "Dishon": 5210,
      "Ear": 5211,
      "Ease": 5212,
      "Edition": 5213,
      "EHO": 5214,
      "Eye": 5215,
      "Fe": 5216,
      "Fly": 5217,
      "Fill": 5218,
      "Fall": 5219,
      "Fore": 5220,
      "Fool": 5221,
      "Favour": 5222,
      "Gn": 5223,
      "HN": 5224,
      "Hon": 5225,
      "High": 5226,
      "Home": 5227,
      "Happ": 5228,
      "HAT": 5229,
      "Happy": 5230,
      "Half": 5231,
      "HORACE": 5232,
      "IG": 5233,
      "IL": 5234,
      "Ith": 5235,
      "IES": 5236,
      "Idol": 5237,
      "Jud": 5238,
      "LO": 5239,
      "LY": 5240,
      "Lod": 5241,
      "Lay": 5242,
      "Light": 5243,
      "Lie": 5244,
      "List": 5245,
      "Lead": 5246,
      "Lab": 5247,
      "Life": 5248,
      "Lift": 5249,
      "LIS": 5250,
      "LORD": 5251,
      "Latin": 5252,
      "Living": 5253,
      "Mr": 5254,
      "Men": 5255,
      "Met": 5256,
      "Ment": 5257,
      "Mad": 5258,
      "Mee": 5259,
      "Make": 5260,
      "Move": 5261,
      "Mother": 5262,
      "Milton": 5263,
      "Nove": 5264,
      "None": 5265,
      "NING": 5266,
      "NET": 5267,
      "Oh": 5268,
      "Out": 5269,
      "OHN": 5270,
      "Pre": 5271,
      "Pri": 5272,
      "Prom": 5273,
      "Port": 5274,
      "Pull": 5275,
      "Prin": 5276,
      "Part": 5277,
      "Present": 5278,
      "Puts": 5279,
      "Res": 5280,
      "Ran": 5281,
      "Right": 5282,
      "Rose": 5283,
      "Rend": 5284,
      "Rough": 5285,
      "Reg": 5286,
      "Rob": 5287,
      "Reve": 5288,
      "Sea": 5289,
      "Sem": 5290,
      "Seas": 5291,
      "Self": 5292,
      "Sons": 5293,
      "Save": 5294,
      "SIR": 5295,
      "Summers": 5296,
      "TE": 5297,
      "Take": 5298,
      "Time": 5299,
      "Turn": 5300,
      "TON": 5301,
      "Times": 5302,
      "Touch": 5303,
      "Temper": 5304,
      "Us": 5305,
      "UPON": 5306,
      "Visit": 5307,
      "VAH": 5308,
      "Went": 5309,
      "WHAT": 5310,
      "XII": 5311,
      "XIII": 5312,
      "XIV": 5313,
      "XIX": 5314,
      "ald": 5315,
      "aal": 5316,
      "aver": 5317,
      "awn": 5318,
      "aild": 5319,
      "bd": 5320,
      "bil": 5321,
      "bus": 5322,
      "both": 5323,
      "batter": 5324,
      "cu": 5325,
      "cing": 5326,
      "ced": 5327,
      "cere": 5328,
      "cur": 5329,
      "cad": 5330,
      "cus": 5331,
      "cue": 5332,
      "cip": 5333,
      "come": 5334,
      "cover": 5335,
      "copy": 5336,
      "du": 5337,
      "des": 5338,
      "don": 5339,
      "dst": 5340,
      "del": 5341,
      "dain": 5342,
      "dist": 5343,
      "dens": 5344,
      "draw": 5345,
      "eth": 5346,
      "eph": 5347,
      "equ": 5348,
      "eels": 5349,
      "eople": 5350,
      "epping": 5351,
      "fed": 5352,
      "fast": 5353,
      "find": 5354,
      "found": 5355,
      "fts": 5356,
      "face": 5357,
      "friend": 5358,
      "frag": 5359,
      "famous": 5360,
      "first": 5361,
      "fric": 5362,
      "fax": 5363,
      "fixed": 5364,
      "gy": 5365,
      "get": 5366,
      "god": 5367,
      "gid": 5368,
      "gare": 5369,
      "gian": 5370,
      "gled": 5371,
      "girt": 5372,
      "here": 5373,
      "ham": 5374,
      "had": 5375,
      "hem": 5376,
      "held": 5377,
      "house": 5378,
      "hib": 5379,
      "ik": 5380,
      "ias": 5381,
      "iour": 5382,
      "iall": 5383,
      "ict": 5384,
      "iph": 5385,
      "ipp": 5386,
      "iable": 5387,
      "iction": 5388,
      "iena": 5389,
      "ju": 5390,
      "jur": 5391,
      "ky": 5392,
      "kly": 5393,
      "kind": 5394,
      "lt": 5395,
      "low": 5396,
      "lay": 5397,
      "lose": 5398,
      "lick": 5399,
      "lings": 5400,
      "love": 5401,
      "lian": 5402,
      "lave": 5403,
      "lov": 5404,
      "little": 5405,
      "lips": 5406,
      "lids": 5407,
      "mo": 5408,
      "mes": 5409,
      "men": 5410,
      "mind": 5411,
      "mine": 5412,
      "much": 5413,
      "mov": 5414,
      "mper": 5415,
      "making": 5416,
      "mbling": 5417,
      "nel": 5418,
      "nall": 5419,
      "nell": 5420,
      "nish": 5421,
      "nity": 5422,
      "nance": 5423,
      "neath": 5424,
      "nets": 5425,
      "oe": 5426,
      "oon": 5427,
      "oath": 5428,
      "occ": 5429,
      "oft": 5430,
      "oars": 5431,
      "oggs": 5432,
      "pet": 5433,
      "ply": 5434,
      "pent": 5435,
      "pers": 5436,
      "pell": 5437,
      "pake": 5438,
      "part": 5439,
      "pides": 5440,
      "perty": 5441,
      "rh": 5442,
      "ration": 5443,
      "sear": 5444,
      "saw": 5445,
      "sial": 5446,
      "tre": 5447,
      "tir": 5448,
      "tch": 5449,
      "tick": 5450,
      "tto": 5451,
      "tles": 5452,
      "tars": 5453,
      "times": 5454,
      "twixt": 5455,
      "ued": 5456,
      "ung": 5457,
      "ucc": 5458,
      "uilt": 5459,
      "uable": 5460,
      "unto": 5461,
      "uces": 5462,
      "ural": 5463,
      "ugl": 5464,
      "van": 5465,
      "vow": 5466,
      "ved": 5467,
      "var": 5468,
      "val": 5469,
      "vol": 5470,
      "vious": 5471,
      "vish": 5472,
      "vity": 5473,
      "wing": 5474,
      "wra": 5475,
      "wage": 5476,
      "weet": 5477,
      "watch": 5478,
      "ways": 5479,
      "xious": 5480,
      "yth": 5481,
      "yle": 5482,
      "yard": 5483,
      "yrann": 5484,
      "ygian": 5485,
      "zz": 5486,
      "zor": 5487,
      "zing": 5488,
      "Ġiv": 5489,
      "Ġrough": 5490,
      "Ġ--------------------------------": 5491,
      "ĠWhile": 5492,
      "Ġ----------------------------": 5493,
      "ths": 5494,
      "thia": 5495,
      "thors": 5496,
      "Ġthin": 5497,
      "Ġthorn": 5498,
      "Ġthred": 5499,
      "Ġthrown": 5500,
      "Ġthrows": 5501,
      "Ġthresh": 5502,
      "Ġthanks": 5503,
      "Ġthrice": 5504,
      "Ġaz": 5505,
      "Ġaer": 5506,
      "Ġapt": 5507,
      "Ġaire": 5508,
      "Ġagg": 5509,
      "Ġaverse": 5510,
      "ina": 5511,
      "inent": 5512,
      "inion": 5513,
      "inous": 5514,
      "inence": 5515,
      "inely": 5516,
      "inated": 5517,
      "inary": 5518,
      "Ġsea": 5519,
      "Ġsow": 5520,
      "Ġsut": 5521,
      "Ġsal": 5522,
      "Ġsly": 5523,
      "Ġsand": 5524,
      "Ġsnow": 5525,
      "Ġseas": 5526,
      "Ġsym": 5527,
      "Ġsia": 5528,
      "Ġsides": 5529,
      "Ġsize": 5530,
      "Ġsowr": 5531,
      "Ġsourse": 5532,
      "Ġsearch": 5533,
      "eron": 5534,
      "erate": 5535,
      "erish": 5536,
      "erity": 5537,
      "erries": 5538,
      "nds": 5539,
      "ndred": 5540,
      "Ġwth": 5541,
      "Ġwain": 5542,
      "Ġwight": 5543,
      "Ġwall": 5544,
      "Ġward": 5545,
      "Ġworn": 5546,
      "Ġwrin": 5547,
      "Ġwears": 5548,
      "Ġwip": 5549,
      "Ġwail": 5550,
      "Ġwily": 5551,
      "Ġwakes": 5552,
      "Ġwrest": 5553,
      "Ġwaste": 5554,
      "Ġwoes": 5555,
      "Ġwiles": 5556,
      "Ġwires": 5557,
      "Ġwolves": 5558,
      "Ġwinters": 5559,
      "Ġhed": 5560,
      "Ġhom": 5561,
      "Ġhous": 5562,
      "Ġhie": 5563,
      "Ġhang": 5564,
      "Ġhier": 5565,
      "Ġhook": 5566,
      "Ġhusband": 5567,
      "Ġhudd": 5568,
      "Ġow": 5569,
      "Ġori": 5570,
      "Ġoil": 5571,
      "Ġomit": 5572,
      "Ġobt": 5573,
      "Ġowe": 5574,
      "Ġomitted": 5575,
      "Ġomission": 5576,
      "Ġooz": 5577,
      "Ġonde": 5578,
      "reet": 5579,
      "requent": 5580,
      "oubl": 5581,
      "oubt": 5582,
      "Ġmar": 5583,
      "Ġmere": 5584,
      "Ġmort": 5585,
      "Ġmaz": 5586,
      "Ġmuse": 5587,
      "Ġmult": 5588,
      "Ġmask": 5589,
      "Ġmaking": 5590,
      "Ġmarriage": 5591,
      "Ġmoment": 5592,
      "Ġmillions": 5593,
      "ison": 5594,
      "isies": 5595,
      "isera": 5596,
      "Ġfed": 5597,
      "Ġfain": 5598,
      "Ġfence": 5599,
      "Ġfelt": 5600,
      "Ġfuri": 5601,
      "Ġfester": 5602,
      "Ġflew": 5603,
      "Ġfurious": 5604,
      "Ġfickle": 5605,
      "Ġbill": 5606,
      "Ġbord": 5607,
      "Ġbare": 5608,
      "Ġbab": 5609,
      "Ġbark": 5610,
      "Ġbrown": 5611,
      "Ġbrows": 5612,
      "Ġbays": 5613,
      "Ġborrow": 5614,
      "Ġbird": 5615,
      "Ġbolt": 5616,
      "Ġbereft": 5617,
      "Ġtor": 5618,
      "Ġtir": 5619,
      "Ġtam": 5620,
      "Ġtast": 5621,
      "Ġtres": 5622,
      "Ġtame": 5623,
      "Ġtun": 5624,
      "Ġtab": 5625,
      "Ġtap": 5626,
      "Ġtail": 5627,
      "Ġtale": 5628,
      "Ġtaint": 5629,
      "Ġtreat": 5630,
      "Ġtalk": 5631,
      "Ġturns": 5632,
      "Ġtrance": 5633,
      "Ġtaken": 5634,
      "eso": 5635,
      "esse": 5636,
      "essel": 5637,
      "esbian": 5638,
      "oned": 5639,
      "onishment": 5640,
      "orp": 5641,
      "orch": 5642,
      "orter": 5643,
      "orick": 5644,
      "orcer": 5645,
      "ati": 5646,
      "aten": 5647,
      "aters": 5648,
      "atick": 5649,
      "atona": 5650,
      "lling": 5651,
      "enc": 5652,
      "enu": 5653,
      "ened": 5654,
      "enom": 5655,
      "eness": 5656,
      "enus": 5657,
      "enem": 5658,
      "ences": 5659,
      "Ġdy": 5660,
      "Ġder": 5661,
      "Ġdal": 5662,
      "Ġdight": 5663,
      "Ġdrou": 5664,
      "Ġdaz": 5665,
      "Ġdign": 5666,
      "Ġdrag": 5667,
      "Ġdaring": 5668,
      "eams": 5669,
      "earied": 5670,
      "ĠĠĠĠĠĠĠĠĠĠĠĠĠĠĠĠĠĠĠĠĠĠĠĠĠĠĠĠĠĠĠĠĠĠĠĠĠĠĠĠĠĠĠ": 5671,
      "ĠĠĠĠĠĠĠĠĠĠĠĠĠĠĠĠĠĠĠĠĠĠĠĠĠĠĠĠĠĠĠĠĠĠĠĠĠĠĠĠĠĠĠĠĠ": 5672,
      "Ġcre": 5673,
      "Ġcle": 5674,
      "Ġcas": 5675,
      "Ġcun": 5676,
      "Ġcop": 5677,
      "Ġcull": 5678,
      "Ġcark": 5679,
      "Ġcred": 5680,
      "Ġceast": 5681,
      "Ġcaught": 5682,
      "Ġcoll": 5683,
      "Ġcrest": 5684,
      "Ġcater": 5685,
      "Ġcoin": 5686,
      "Ġcarri": 5687,
      "Ġcamp": 5688,
      "Ġcurs": 5689,
      "Ġcurb": 5690,
      "Ġcoward": 5691,
      "Ġcerto": 5692,
      "Ġcreep": 5693,
      "Ġcottage": 5694,
      "Ġlif": 5695,
      "Ġlose": 5696,
      "Ġlag": 5697,
      "Ġlower": 5698,
      "Ġlaz": 5699,
      "Ġlink": 5700,
      "Ġleasure": 5701,
      "Ġlining": 5702,
      "Ġpay": 5703,
      "Ġpent": 5704,
      "Ġpill": 5705,
      "Ġpain": 5706,
      "Ġpoy": 5707,
      "Ġpaw": 5708,
      "Ġpack": 5709,
      "Ġpair": 5710,
      "Ġprone": 5711,
      "Ġpowre": 5712,
      "Ġnod": 5713,
      "Ġnest": 5714,
      "Ġnine": 5715,
      "Ġnau": 5716,
      "Ġnelle": 5717,
      "Ġnuptial": 5718,
      "star": 5719,
      "stru": 5720,
      "stance": 5721,
      "stret": 5722,
      "stery": 5723,
      "stepping": 5724,
      "street": 5725,
      "inging": 5726,
      "Ġtore": 5727,
      "Ġtool": 5728,
      "Ġtomb": 5729,
      "ann": 5730,
      "anet": 5731,
      "anim": 5732,
      "anza": 5733,
      "anctu": 5734,
      "Ġinex": 5735,
      "Ġincid": 5736,
      "Ġincredible": 5737,
      "Ġinherit": 5738,
      "Than": 5739,
      "Those": 5740,
      "Thence": 5741,
      "Things": 5742,
      "Think": 5743,
      "Thither": 5744,
      "Threat": 5745,
      "Therfore": 5746,
      "owl": 5747,
      "owred": 5748,
      "edia": 5749,
      "edience": 5750,
      "edges": 5751,
      "edication": 5752,
      "omin": 5753,
      "itor": 5754,
      "itous": 5755,
      "itic": 5756,
      "itation": 5757,
      "itness": 5758,
      "arce": 5759,
      "arrow": 5760,
      "arrels": 5761,
      "Ġgust": 5762,
      "Ġgau": 5763,
      "Ġgames": 5764,
      "Ġgrat": 5765,
      "Ġgiov": 5766,
      "Ġgorgeous": 5767,
      "irl": 5768,
      "irm": 5769,
      "iring": 5770,
      "irable": 5771,
      "irmity": 5772,
      "cely": 5773,
      "leet": 5774,
      "leep": 5775,
      "lected": 5776,
      "Ġwhist": 5777,
      "Ġwhets": 5778,
      "Ġwhilst": 5779,
      "Ġwheels": 5780,
      "Ġwhirl": 5781,
      "set": 5782,
      "sell": 5783,
      "sembly": 5784,
      "sembl": 5785,
      "ĠInd": 5786,
      "ĠIles": 5787,
      "ĠInto": 5788,
      "chers": 5789,
      "chool": 5790,
      "choes": 5791,
      "chordon": 5792,
      "oty": 5793,
      "otent": 5794,
      "otous": 5795,
      "eter": 5796,
      "etic": 5797,
      "etime": 5798,
      "etatis": 5799,
      "etween": 5800,
      "Ġhab": 5801,
      "Ġhail": 5802,
      "Ġhainous": 5803,
      "rac": 5804,
      "ravail": 5805,
      "rama": 5806,
      "ĠSm": 5807,
      "ĠSore": 5808,
      "ĠSee": 5809,
      "ĠSist": 5810,
      "ĠSelf": 5811,
      "ĠSuch": 5812,
      "ĠSto": 5813,
      "ĠSome": 5814,
      "ĠSec": 5815,
      "ĠSav": 5816,
      "ĠSub": 5817,
      "ĠSands": 5818,
      "ĠSyl": 5819,
      "ĠSup": 5820,
      "ĠSAM": 5821,
      "ĠSupp": 5822,
      "ĠSkie": 5823,
      "ĠSummer": 5824,
      "ĠSiena": 5825,
      "ĠSisera": 5826,
      "ĠSorcer": 5827,
      "ĠSanctu": 5828,
      "ĠSchool": 5829,
      "utes": 5830,
      "uted": 5831,
      "uties": 5832,
      "eles": 5833,
      "elve": 5834,
      "elic": 5835,
      "elter": 5836,
      "elief": 5837,
      "eliest": 5838,
      "Ġwithal": 5839,
      "Ġwithstand": 5840,
      "rive": 5841,
      "Ġshre": 5842,
      "Ġshed": 5843,
      "Ġshell": 5844,
      "Ġshun": 5845,
      "Ġsheep": 5846,
      "Ġshake": 5847,
      "Ġshag": 5848,
      "Ġshears": 5849,
      "Ġshown": 5850,
      "Ġshatter": 5851,
      "Ġshroud": 5852,
      "Ġshuts": 5853,
      "Ġshorter": 5854,
      "Ġshelter": 5855,
      "earth": 5856,
      "earning": 5857,
      "earled": 5858,
      "ereus": 5859,
      "amy": 5860,
      "amins": 5861,
      "odies": 5862,
      "Ġstat": 5863,
      "Ġsting": 5864,
      "Ġstare": 5865,
      "Ġstart": 5866,
      "Ġstress": 5867,
      "Ġstock": 5868,
      "Ġstony": 5869,
      "Ġstaff": 5870,
      "Ġstops": 5871,
      "Ġsteam": 5872,
      "Ġstearing": 5873,
      "Ġren": 5874,
      "Ġrenow": 5875,
      "Ġrepl": 5876,
      "Ġreward": 5877,
      "Ġreins": 5878,
      "Ġrecks": 5879,
      "Ġrevel": 5880,
      "Ġeat": 5881,
      "Ġeight": 5882,
      "Ġeither": 5883,
      "Ġecho": 5884,
      "alent": 5885,
      "ality": 5886,
      "alians": 5887,
      "Ġbell": 5888,
      "Ġbegu": 5889,
      "iddy": 5890,
      "imm": 5891,
      "ims": 5892,
      "imate": 5893,
      "imps": 5894,
      "imney": 5895,
      "ayes": 5896,
      "urd": 5897,
      "urther": 5898,
      "asp": 5899,
      "ason": 5900,
      "asie": 5901,
      "asph": 5902,
      "asies": 5903,
      "asper": 5904,
      "verty": 5905,
      "rol": 5906,
      "rop": 5907,
      "rovers": 5908,
      "rocal": 5909,
      "adia": 5910,
      "Ġmyster": 5911,
      "Ġmystery": 5912,
      "Ġones": 5913,
      "Ġonward": 5914,
      "Ġmeed": 5915,
      "Ġnotice": 5916,
      "ĠLe": 5917,
      "ĠLight": 5918,
      "ĠLud": 5919,
      "ĠLiver": 5920,
      "ĠLook": 5921,
      "ĠLute": 5922,
      "ĠLoc": 5923,
      "ĠLover": 5924,
      "ĠLeasure": 5925,
      "ĠLamp": 5926,
      "ĠLAW": 5927,
      "ĠLesbian": 5928,
      "ĠLatona": 5929,
      "ĠLearning": 5930,
      "Whil": 5931,
      "estim": 5932,
      "estures": 5933,
      "Them": 5934,
      "ilest": 5935,
      "ilist": 5936,
      "ilian": 5937,
      "ained": 5938,
      "ĠPat": 5939,
      "ĠPear": 5940,
      "ĠProm": 5941,
      "ĠPag": 5942,
      "ĠPass": 5943,
      "ĠPens": 5944,
      "ĠPray": 5945,
      "ĠPalm": 5946,
      "ĠPatience": 5947,
      "ĠPAS": 5948,
      "ĠPomp": 5949,
      "ĠPeople": 5950,
      "Ġforrest": 5951,
      "Ġforfeit": 5952,
      "ĠAT": 5953,
      "ĠAy": 5954,
      "ĠAle": 5955,
      "ĠAct": 5956,
      "ĠApp": 5957,
      "ĠAcc": 5958,
      "ĠAsh": 5959,
      "ĠAbra": 5960,
      "ĠAires": 5961,
      "ĠAthen": 5962,
      "ĠAreth": 5963,
      "ĠAfric": 5964,
      "ighted": 5965,
      "ĠHa": 5966,
      "ĠHor": 5967,
      "ĠHam": 5968,
      "ĠHast": 5969,
      "ĠHind": 5970,
      "ĠHand": 5971,
      "ĠHag": 5972,
      "ĠHears": 5973,
      "ĠHec": 5974,
      "ĠHIS": 5975,
      "ĠHappy": 5976,
      "ĠHelm": 5977,
      "ĠHusband": 5978,
      "ĠHenry": 5979,
      "allenge": 5980,
      "ĠMer": 5981,
      "ĠMis": 5982,
      "ĠMor": 5983,
      "ĠMid": 5984,
      "ĠMist": 5985,
      "ĠMirth": 5986,
      "ĠMOR": 5987,
      "ĠMeasure": 5988,
      "ĠMAI": 5989,
      "ĠMasters": 5990,
      "ĠMantle": 5991,
      "ĠMurther": 5992,
      "Ġasunder": 5993,
      "Ġaspire": 5994,
      "ĠCH": 5995,
      "ĠCre": 5996,
      "ĠCat": 5997,
      "ĠCar": 5998,
      "ĠCell": 5999,
      "ĠCare": 6000,
      "ĠChe": 6001,
      "ĠCip": 6002,
      "ĠCock": 6003,
      "ĠCome": 6004,
      "ĠCouch": 6005,
      "ĠCarri": 6006,
      "ĠCounsel": 6007,
      "Ġallay": 6008,
      "romwell": 6009,
      "esso": 6010,
      "ĠGO": 6011,
      "ĠGard": 6012,
      "ĠGive": 6013,
      "ĠGray": 6014,
      "ĠGates": 6015,
      "ĠGener": 6016,
      "ĠGrove": 6017,
      "ĠGroves": 6018,
      "Ġorbs": 6019,
      "Ġissu": 6020,
      "eeks": 6021,
      "eeces": 6022,
      "rue": 6023,
      "rus": 6024,
      "rush": 6025,
      "ructed": 6026,
      "Ġvall": 6027,
      "Ġvail": 6028,
      "Ġvoc": 6029,
      "Ġvouch": 6030,
      "Ġvary": 6031,
      "Ġvaul": 6032,
      "Ġvoid": 6033,
      "Ġvulgar": 6034,
      "Ġvenom": 6035,
      "Ġvilest": 6036,
      "ctate": 6037,
      "Ġsole": 6038,
      "Ġsoil": 6039,
      "Ġsoild": 6040,
      "Ġsober": 6041,
      "Ġsofter": 6042,
      "Ġsoever": 6043,
      "Ġsollic": 6044,
      "ĠBE": 6045,
      "ĠBY": 6046,
      "ĠBr": 6047,
      "ĠBow": 6048,
      "ĠBed": 6049,
      "ĠBear": 6050,
      "ĠBee": 6051,
      "ĠBull": 6052,
      "ĠBoth": 6053,
      "ĠBoy": 6054,
      "ĠBatt": 6055,
      "ĠBridge": 6056,
      "ĠBays": 6057,
      "ĠBowre": 6058,
      "ĠBards": 6059,
      "ĠBird": 6060,
      "ĠBecause": 6061,
      "ĠBaal": 6062,
      "ĠBerries": 6063,
      "erscription": 6064,
      "usal": 6065,
      "uscan": 6066,
      "Ġherb": 6067,
      "Ġheroic": 6068,
      "Ġsped": 6069,
      "Ġsple": 6070,
      "Ġspect": 6071,
      "Ġspoil": 6072,
      "Ġsprung": 6073,
      "rouble": 6074,
      "---------": 6075,
      "Ġsubl": 6076,
      "Ġsumm": 6077,
      "Ġsustain": 6078,
      "Ġsuccess": 6079,
      "Offer": 6080,
      "ĠTur": 6081,
      "ĠTrin": 6082,
      "ĠTab": 6083,
      "ĠTap": 6084,
      "ĠTown": 6085,
      "ĠTyr": 6086,
      "ĠText": 6087,
      "ĠTongue": 6088,
      "ĠToward": 6089,
      "ĠTroy": 6090,
      "ĠTetra": 6091,
      "ĠTyrian": 6092,
      "ĠTHY": 6093,
      "ĠTIM": 6094,
      "ĠTyre": 6095,
      "ĠTravail": 6096,
      "elld": 6097,
      "elling": 6098,
      "ongs": 6099,
      "ongst": 6100,
      "ĠFre": 6101,
      "ĠFro": 6102,
      "ĠFate": 6103,
      "ĠFav": 6104,
      "ĠFOR": 6105,
      "ĠFountain": 6106,
      "ĠFAI": 6107,
      "ĠFestiv": 6108,
      "ĠForest": 6109,
      "ĠFleet": 6110,
      "resist": 6111,
      "Ġchear": 6112,
      "Ġchast": 6113,
      "Ġchide": 6114,
      "Ġchaste": 6115,
      "Ġchoic": 6116,
      "Ġchorus": 6117,
      "Ġchallenge": 6118,
      "Ġcheeks": 6119,
      "emm": 6120,
      "emin": 6121,
      "indic": 6122,
      "anta": 6123,
      "antic": 6124,
      "Ġunb": 6125,
      "Ġunth": 6126,
      "Ġunion": 6127,
      "Ġunif": 6128,
      "Ġunus": 6129,
      "Ġunbl": 6130,
      "Ġunable": 6131,
      "Ġunless": 6132,
      "Ġunarm": 6133,
      "Ġunsu": 6134,
      "Ġunrep": 6135,
      "Ġunlike": 6136,
      "Ġunknown": 6137,
      "Ġunchaste": 6138,
      "Ġunemph": 6139,
      "Ġunequ": 6140,
      "Ġungod": 6141,
      "Ġheed": 6142,
      "Ġheel": 6143,
      "Ġheere": 6144,
      "Ġheight": 6145,
      "Ġnov": 6146,
      "Ġnook": 6147,
      "isting": 6148,
      "istot": 6149,
      "istles": 6150,
      "ichor": 6151,
      "ĠOre": 6152,
      "ĠOld": 6153,
      "ĠOur": 6154,
      "ĠOak": 6155,
      "ĠOcc": 6156,
      "ĠOde": 6157,
      "ĠOmitted": 6158,
      "ĠOrac": 6159,
      "phet": 6160,
      "ĠEu": 6161,
      "ĠEv": 6162,
      "ĠEter": 6163,
      "ĠEns": 6164,
      "ĠEcl": 6165,
      "ĠEuri": 6166,
      "ĠEdition": 6167,
      "ĠEcho": 6168,
      "ĠENG": 6169,
      "ĠEpitaph": 6170,
      "andal": 6171,
      "atever": 6172,
      "Ġloy": 6173,
      "Ġloving": 6174,
      "quest": 6175,
      "quie": 6176,
      "quainted": 6177,
      "Ġking": 6178,
      "Ġkill": 6179,
      "Ġcomment": 6180,
      "Ġcomely": 6181,
      "Ġcomfort": 6182,
      "Ġlip": 6183,
      "Ġlips": 6184,
      "Ġliken": 6185,
      "Ġdol": 6186,
      "Ġdoct": 6187,
      "Ġdoings": 6188,
      "Ġdoff": 6189,
      "Ġdoors": 6190,
      "Ġblab": 6191,
      "Ġblaz": 6192,
      "Ġblows": 6193,
      "Ġblund": 6194,
      "Ġblithe": 6195,
      "Ġblasph": 6196,
      "oln": 6197,
      "olv": 6198,
      "olve": 6199,
      "olsom": 6200,
      "ulent": 6201,
      "ĠDi": 6202,
      "ĠDes": 6203,
      "ĠDow": 6204,
      "ĠDam": 6205,
      "ĠDun": 6206,
      "ĠDost": 6207,
      "ĠDeep": 6208,
      "ĠDone": 6209,
      "ĠDown": 6210,
      "ĠDale": 6211,
      "ĠDames": 6212,
      "ĠDungeon": 6213,
      "ĠDivine": 6214,
      "ĠDonna": 6215,
      "ĠDedication": 6216,
      "ĠDrama": 6217,
      "endeav": 6218,
      "endix": 6219,
      "Ġconcl": 6220,
      "Ġconject": 6221,
      "Ġconceiv": 6222,
      "Ġconvers": 6223,
      "Ġconven": 6224,
      "Ġconquer": 6225,
      "ics": 6226,
      "icient": 6227,
      "icament": 6228,
      "iceable": 6229,
      "icacy": 6230,
      "Infer": 6231,
      "ĠWit": 6232,
      "ĠWall": 6233,
      "ĠWild": 6234,
      "ĠWrit": 6235,
      "Ġfable": 6236,
      "Ġfarew": 6237,
      "Ġfaery": 6238,
      "Ġdeer": 6239,
      "Ġdeck": 6240,
      "Ġdefe": 6241,
      "Ġdefer": 6242,
      "Ġdeject": 6243,
      "Ġdebt": 6244,
      "Ġdeceive": 6245,
      "ĠGodlike": 6246,
      "pper": 6247,
      "arded": 6248,
      "rowle": 6249,
      "rowess": 6250,
      "rowns": 6251,
      "Ġplead": 6252,
      "Ġplots": 6253,
      "Ġpluck": 6254,
      "Ġplumes": 6255,
      "Ġplenty": 6256,
      "una": 6257,
      "unc": 6258,
      "uno": 6259,
      "ivid": 6260,
      "iveness": 6261,
      "olds": 6262,
      "ured": 6263,
      "osts": 6264,
      "ostroph": 6265,
      "Ġjo": 6266,
      "Ġflo": 6267,
      "Ġfling": 6268,
      "Ġflour": 6269,
      "Ġfloud": 6270,
      "ĠNow": 6271,
      "ĠNot": 6272,
      "ĠNect": 6273,
      "ĠNotes": 6274,
      "ĠNuptial": 6275,
      "ĠNereus": 6276,
      "ĠRain": 6277,
      "ĠRose": 6278,
      "ĠRep": 6279,
      "ĠRome": 6280,
      "ĠRev": 6281,
      "ĠRites": 6282,
      "Ġhears": 6283,
      "Ġhearse": 6284,
      "eadows": 6285,
      "Ġupward": 6286,
      "osure": 6287,
      "ospit": 6288,
      "Ġsaith": 6289,
      "Ġsaving": 6290,
      "Ġann": 6291,
      "Ġanon": 6292,
      "Ġanointed": 6293,
      "ĠThrough": 6294,
      "ĠThrone": 6295,
      "Ġsex": 6296,
      "Ġseed": 6297,
      "Ġsevere": 6298,
      "oples": 6299,
      "ounding": 6300,
      "ilement": 6301,
      "orno": 6302,
      "Ġglass": 6303,
      "Ġglade": 6304,
      "Ġglitter": 6305,
      "Ġglimmer": 6306,
      "Ġstreets": 6307,
      "Ġstretch": 6308,
      "Ġworm": 6309,
      "Ġwors": 6310,
      "Ġmanly": 6311,
      "Ġmanhood": 6312,
      "Ġmansion": 6313,
      "Ġmanner": 6314,
      "Ġusage": 6315,
      "Ġusurp": 6316,
      "Ġarri": 6317,
      "Ġarts": 6318,
      "Ġarray": 6319,
      "Ġexpos": 6320,
      "Ġexcess": 6321,
      "Ġexercise": 6322,
      "Ġraig": 6323,
      "Ġrains": 6324,
      "Ġalive": 6325,
      "Ġaloud": 6326,
      "Ġalthough": 6327,
      "Ġalway": 6328,
      "Ġaloof": 6329,
      "Ġamaz": 6330,
      "Ġamber": 6331,
      "Ġamiss": 6332,
      "Ġambit": 6333,
      "Ġgrew": 6334,
      "Ġgreedy": 6335,
      "Ġ1020": 6336,
      "Ġ1010": 6337,
      "icks": 6338,
      "ickly": 6339,
      "range": 6340,
      "Ġsworn": 6341,
      "Ġsweep": 6342,
      "Ġswart": 6343,
      "Ġswarm": 6344,
      "Ġenc": 6345,
      "Ġenmity": 6346,
      "Ġenameld": 6347,
      "Ġenroll": 6348,
      "Ġ1630": 6349,
      "Ġ1670": 6350,
      "athe": 6351,
      "others": 6352,
      "rinx": 6353,
      "Ġproperty": 6354,
      "abb": 6355,
      "abil": 6356,
      "about": 6357,
      "Ġabuse": 6358,
      "Ġwhereof": 6359,
      "Forget": 6360,
      "Ġseeks": 6361,
      "Ġclotted": 6362,
      "Ġruth": 6363,
      "Ġrust": 6364,
      "Ġruff": 6365,
      "uding": 6366,
      "uded": 6367,
      "ĠJaw": 6368,
      "ĠJoll": 6369,
      "Ġearst": 6370,
      "Ġearliest": 6371,
      "erton": 6372,
      "ertie": 6373,
      "ĠVers": 6374,
      "ĠVac": 6375,
      "ĠVertue": 6376,
      "ĠVales": 6377,
      "Ġrip": 6378,
      "Ġride": 6379,
      "Ġrife": 6380,
      "Ġrigg": 6381,
      "Ġrivi": 6382,
      "Ġripe": 6383,
      "Ġrills": 6384,
      "Ġrigid": 6385,
      "Ġriotous": 6386,
      "agle": 6387,
      "agion": 6388,
      "Ġdisse": 6389,
      "Ġdisson": 6390,
      "Ġdisapp": 6391,
      "Ġdispose": 6392,
      "ĠĠĠĠĠĠĠĠĠĠĠĠĠĠĠĠĠĠĠĠĠĠĠĠĠĠĠĠĠĠĠĠĠĠĠĠĠĠĠĠĠĠĠĠĠĠĠĠĠĠ": 6393,
      "Ġthereof": 6394,
      "Ġthereby": 6395,
      "Ġperple": 6396,
      "Ġpermit": 6397,
      "Ġperceiv": 6398,
      "Ġperceive": 6399,
      "Ġperdition": 6400,
      "Ġperpet": 6401,
      "arkle": 6402,
      "pled": 6403,
      "play": 6404,
      "asses": 6405,
      "assail": 6406,
      "ĠHeavenly": 6407,
      "aces": 6408,
      "acles": 6409,
      "acquainted": 6410,
      "blin": 6411,
      "Ġquire": 6412,
      "Ġquires": 6413,
      "Ġquench": 6414,
      "Ġselfe": 6415,
      "Ġweed": 6416,
      "Ġwept": 6417,
      "onsisten": 6418,
      "Ġgoodly": 6419,
      "Ġgoodnes": 6420,
      "Ġimper": 6421,
      "Ġtrump": 6422,
      "Ġoffend": 6423,
      "Ġofferd": 6424,
      "Ġoffering": 6425,
      "eeting": 6426,
      "Ġsliding": 6427,
      "Ġslumbring": 6428,
      "Ġslaver": 6429,
      "Ġvernall": 6430,
      "urnal": 6431,
      "Ġlonger": 6432,
      "ĠCha": 6433,
      "ĠChamber": 6434,
      "ONIST": 6435,
      "depart": 6436,
      "arting": 6437,
      "artial": 6438,
      "Ġwayes": 6439,
      "Ġpract": 6440,
      "ression": 6441,
      "iprocal": 6442,
      "neth": 6443,
      "shine": 6444,
      "shipt": 6445,
      "Ġadj": 6446,
      "Ġadmit": 6447,
      "Ġadded": 6448,
      "Ġscore": 6449,
      "Ġscant": 6450,
      "Ġscaly": 6451,
      "Ġscrivi": 6452,
      "Ġrobe": 6453,
      "Ġrobes": 6454,
      "Ġbreast": 6455,
      "aws": 6456,
      "Ġdespo": 6457,
      "Ġdesolation": 6458,
      "Ġletters": 6459,
      "Ġ620": 6460,
      "Ġ630": 6461,
      "Ġ640": 6462,
      "Ġ650": 6463,
      "Ġ610": 6464,
      "Ġ690": 6465,
      "Ġolder": 6466,
      "Ġdelay": 6467,
      "Ġdelicious": 6468,
      "Ġdelicacy": 6469,
      "Ġgrass": 6470,
      "Ġgraces": 6471,
      "Ġsomewhat": 6472,
      "Ġhonied": 6473,
      "Ġhonourable": 6474,
      "Ġbested": 6475,
      "Ġprecious": 6476,
      "Ġprefixed": 6477,
      "ails": 6478,
      "ailing": 6479,
      "ĠStones": 6480,
      "ĠStygian": 6481,
      "ĠStanza": 6482,
      "Ġsmite": 6483,
      "Ġsmart": 6484,
      "Ġsmiling": 6485,
      "Ġendeavour": 6486,
      "ginal": 6487,
      "ensive": 6488,
      "Ġappro": 6489,
      "Ġapproach": 6490,
      "Ġapplause": 6491,
      "Ġappendix": 6492,
      "Ġtwise": 6493,
      "Ġtwice": 6494,
      "Ġtrib": 6495,
      "Ġtriple": 6496,
      "Ġtricks": 6497,
      "Ġcalling": 6498,
      "Ġcalled": 6499,
      "Ġevents": 6500,
      "Ġsecular": 6501,
      "Ġglorifie": 6502,
      "ĠKid": 6503,
      "ĠKey": 6504,
      "ĠKnight": 6505,
      "ĠKING": 6506,
      "Ġfounded": 6507,
      "Ġfoundations": 6508,
      "Ġguid": 6509,
      "Ġguest": 6510,
      "Ġguided": 6511,
      "Ġunderstand": 6512,
      "Ġundergo": 6513,
      "Ġunderneath": 6514,
      "Ġremed": 6515,
      "Ġremit": 6516,
      "Ġremain": 6517,
      "Ġremove": 6518,
      "Ġremark": 6519,
      "Ġcontest": 6520,
      "Ġcontemn": 6521,
      "Ġcontrovers": 6522,
      "Ġcontagion": 6523,
      "Only": 6524,
      "iery": 6525,
      "erdon": 6526,
      "ancing": 6527,
      "Ġrepast": 6528,
      "Ġrepair": 6529,
      "Ġreprod": 6530,
      "Ġrepeated": 6531,
      "alem": 6532,
      "crib": 6533,
      "eca": 6534,
      "ecially": 6535,
      "ronounc": 6536,
      "ymen": 6537,
      "Ġreside": 6538,
      "Ġresign": 6539,
      "Ġresidence": 6540,
      "Ġrescue": 6541,
      "Ġresounding": 6542,
      "Ġjustly": 6543,
      "Ġjustice": 6544,
      "Ġpoco": 6545,
      "Ġpresage": 6546,
      "Ġpreserv": 6547,
      "Ġpreserved": 6548,
      "Ġreading": 6549,
      "ĠPhill": 6550,
      "ĠArch": 6551,
      "ĠAristot": 6552,
      "Ġsweets": 6553,
      "Ġsweetnes": 6554,
      "Ġfeat": 6555,
      "Ġleggi": 6556,
      "Ġ24": 6557,
      "Ġ230": 6558,
      "Ġ240": 6559,
      "Ġ250": 6560,
      "Ġ270": 6561,
      "Ġ280": 6562,
      "Ġ260": 6563,
      "Ġdeaths": 6564,
      "Ġdownward": 6565,
      "Ġcommits": 6566,
      "cled": 6567,
      "feu": 6568,
      "Ġhole": 6569,
      "Ġhovering": 6570,
      "Ġmisery": 6571,
      "Ġbringing": 6572,
      "Ġkeeping": 6573,
      "HEN": 6574,
      "HERE": 6575,
      "beg": 6576,
      "been": 6577,
      "iae": 6578,
      "iah": 6579,
      "Ġbetwixt": 6580,
      "ĠSonnet": 6581,
      "Ġattire": 6582,
      "Ġattended": 6583,
      "Ġattorno": 6584,
      "Beyond": 6585,
      "whom": 6586,
      "whose": 6587,
      "while": 6588,
      "whelm": 6589,
      "Ġbrok": 6590,
      "Ġbrothers": 6591,
      "Ġassert": 6592,
      "Ġasswage": 6593,
      "Ġsinners": 6594,
      "Ġsincere": 6595,
      "Ġpartic": 6596,
      "Ġpeacefull": 6597,
      "Ġretir": 6598,
      "Ġretire": 6599,
      "Ġretains": 6600,
      "Ġretired": 6601,
      "Ġretained": 6602,
      "Shakesp": 6603,
      "Shiph": 6604,
      "Ġ48": 6605,
      "Ġ420": 6606,
      "Ġ430": 6607,
      "Ġ440": 6608,
      "Ġ450": 6609,
      "Ġ410": 6610,
      "Ġ470": 6611,
      "Ġ480": 6612,
      "Ġ490": 6613,
      "Ġ460": 6614,
      "Ġtrade": 6615,
      "Ġtravels": 6616,
      "Ġdivide": 6617,
      "Ġpurity": 6618,
      "Ġpasses": 6619,
      "Ġpassing": 6620,
      "Ġpassions": 6621,
      "Ġpassages": 6622,
      "Ġgoddess": 6623,
      "ĠSpells": 6624,
      "Ġjoyous": 6625,
      "Ġimpious": 6626,
      "Ġimprison": 6627,
      "Ġimpression": 6628,
      "ociate": 6629,
      "Ġentra": 6630,
      "Ġentrance": 6631,
      "Ġentomb": 6632,
      "Ġsights": 6633,
      "Ġlowly": 6634,
      "ĠAmor": 6635,
      "ĠAmber": 6636,
      "ĠAmmon": 6637,
      "ĠAmbro": 6638,
      "Ġrightfull": 6639,
      "Quel": 6640,
      "Qual": 6641,
      "Quando": 6642,
      "Quickly": 6643,
      "Unmind": 6644,
      "Ġrh": 6645,
      "Ġrott": 6646,
      "Ġaffright": 6647,
      "Ġfeard": 6648,
      "enger": 6649,
      "ĠSuns": 6650,
      "forth": 6651,
      "Ġ300": 6652,
      "Ġ400": 6653,
      "Ġaccom": 6654,
      "Ġaccount": 6655,
      "Ġsilk": 6656,
      "Ġwait": 6657,
      "Ġwaight": 6658,
      "Ġwavering": 6659,
      "Ġwinding": 6660,
      "Ġhunt": 6661,
      "Ġhugg": 6662,
      "Ġhundred": 6663,
      "Ġfriendship": 6664,
      "atcht": 6665,
      "Ġdoune": 6666,
      "Ġpeer": 6667,
      "Ġpeoples": 6668,
      "Ġprinci": 6669,
      "Ġprinters": 6670,
      "Ġintrod": 6671,
      "Ġreveng": 6672,
      "Ġbeheld": 6673,
      "Ġservile": 6674,
      "XXI": 6675,
      "nesse": 6676,
      "Ġ520": 6677,
      "Ġ530": 6678,
      "Ġ540": 6679,
      "Ġ550": 6680,
      "Ġ510": 6681,
      "Ġ570": 6682,
      "Ġ580": 6683,
      "Ġ590": 6684,
      "Ġ560": 6685,
      "Ġ820": 6686,
      "Ġ830": 6687,
      "Ġ840": 6688,
      "Ġ850": 6689,
      "Ġ870": 6690,
      "Ġ890": 6691,
      "Ġ860": 6692,
      "Ġ920": 6693,
      "Ġ930": 6694,
      "Ġ940": 6695,
      "Ġ950": 6696,
      "Ġ910": 6697,
      "Ġ970": 6698,
      "Ġ980": 6699,
      "Ġ990": 6700,
      "Ġ960": 6701,
      "Ġsouls": 6702,
      "Ġhumm": 6703,
      "Ġhumours": 6704,
      "Ġhumane": 6705,
      "Ġheaviest": 6706,
      "Ġfals": 6707,
      "Ġdeepest": 6708,
      "Ġprivate": 6709,
      "Ġprivil": 6710,
      "ĠPole": 6711,
      "meil": 6712,
      "notes": 6713,
      "Ġ320": 6714,
      "Ġ330": 6715,
      "Ġ340": 6716,
      "Ġ350": 6717,
      "Ġ310": 6718,
      "Ġ370": 6719,
      "Ġ380": 6720,
      "Ġ390": 6721,
      "Ġ360": 6722,
      "Ġ720": 6723,
      "Ġ730": 6724,
      "Ġ740": 6725,
      "Ġ750": 6726,
      "Ġ710": 6727,
      "Ġ770": 6728,
      "Ġ780": 6729,
      "Ġ790": 6730,
      "Ġawa": 6731,
      "Ġawe": 6732,
      "Ġsorcer": 6733,
      "Ġsurc": 6734,
      "Ġsurm": 6735,
      "Ġsurfet": 6736,
      "Ġfallacious": 6737,
      "Ġcareer": 6738,
      "Ġcareful": 6739,
      "Ġcareless": 6740,
      "rides": 6741,
      "Ġemb": 6742,
      "Ġemploy": 6743,
      "Ġeminent": 6744,
      "ĠHerb": 6745,
      "ĠHeret": 6746,
      "ĠHermes": 6747,
      "ĠMany": 6748,
      "Ġneedst": 6749,
      "Ġconsent": 6750,
      "Ġconsolation": 6751,
      "Ġconsider": 6752,
      "Ġ1641": 6753,
      "ĠPhilistine": 6754,
      "Comm": 6755,
      "ESS": 6756,
      "ESENT": 6757,
      "Stre": 6758,
      "Stand": 6759,
      "Strong": 6760,
      "event": 6761,
      "Ġmix": 6762,
      "ontrou": 6763,
      "elty": 6764,
      "alking": 6765,
      "Ġconfine": 6766,
      "ĠIsraels": 6767,
      "Ġ500": 6768,
      "Ġdistra": 6769,
      "Ġdistill": 6770,
      "Ġdistance": 6771,
      "Ġdistinct": 6772,
      "Ġinfamous": 6773,
      "Ġinfirmity": 6774,
      "Ġinfamy": 6775,
      "Therefore": 6776,
      "Thereby": 6777,
      "ĠAlb": 6778,
      "ĠAlp": 6779,
      "ĠAlpheus": 6780,
      "ĠAltars": 6781,
      "Ġvii": 6782,
      "Ġsolemnly": 6783,
      "Ġsuppli": 6784,
      "ĠEarl": 6785,
      "Ġcomply": 6786,
      "Ġcompare": 6787,
      "Ġcompass": 6788,
      "Ġcomparing": 6789,
      "Ġflowr": 6790,
      "Ġflowre": 6791,
      "Ġflowres": 6792,
      "ĠVirginity": 6793,
      "Ġillustrious": 6794,
      "Ġsounds": 6795,
      "Ġwarrant": 6796,
      "Ġwanting": 6797,
      "Ġbespake": 6798,
      "Ġbids": 6799,
      "atters": 6800,
      "Ġparl": 6801,
      "Ġstraight": 6802,
      "Ġstrains": 6803,
      "ĠLaws": 6804,
      "ĠAsk": 6805,
      "ĠAssembly": 6806,
      "Ġcheck": 6807,
      "Ġcheif": 6808,
      "Ġdefend": 6809,
      "Ġdefiance": 6810,
      "Ġjudg": 6811,
      "Ġjudges": 6812,
      "Ġfollowing": 6813,
      "Ġ600": 6814,
      "izon": 6815,
      "ized": 6816,
      "Ġiii": 6817,
      "Ġwomen": 6818,
      "Ġhelm": 6819,
      "Ġtells": 6820,
      "Ġtransport": 6821,
      "Ġdaies": 6822,
      "Ġdawn": 6823,
      "Ġdaign": 6824,
      "Ġlayes": 6825,
      "Ġloudly": 6826,
      "Ġinterest": 6827,
      "Ġinterpose": 6828,
      "Ġinternal": 6829,
      "ĠAuthors": 6830,
      "Ġamongst": 6831,
      "1653": 6832,
      "ibly": 6833,
      "ibus": 6834,
      "Ġwisard": 6835,
      "Ġwisely": 6836,
      "Ġmetric": 6837,
      "Ġmeaning": 6838,
      "Ġboist": 6839,
      "Ġboots": 6840,
      "Ġbeauties": 6841,
      "Ġbede": 6842,
      "Ġleaden": 6843,
      "Ġhappen": 6844,
      "Ġhappiest": 6845,
      "ĠSweet": 6846,
      "ĠSwains": 6847,
      "ĠPrivate": 6848,
      "ĠProv": 6849,
      "ĠMusic": 6850,
      "Ġspeedy": 6851,
      "Ġsubdu": 6852,
      "Ġchariot": 6853,
      "Ġuncon": 6854,
      "Ġuncontrou": 6855,
      "Ġfavours": 6856,
      "Ġrunning": 6857,
      "ĠStarr": 6858,
      "Ġpresenting": 6859,
      "Ġpresented": 6860,
      "ĠEarths": 6861,
      "Ġsleek": 6862,
      "Ġwrote": 6863,
      "Ġharms": 6864,
      "Ġharbour": 6865,
      "Ġharbinger": 6866,
      "Ġbowres": 6867,
      "Ġbelief": 6868,
      "Ġbelongs": 6869,
      "Ġinside": 6870,
      "Ġinsult": 6871,
      "Ġinsolence": 6872,
      "Ġgentl": 6873,
      "Ġstrive": 6874,
      "ĠLyric": 6875,
      "Ġforgo": 6876,
      "Ġforgery": 6877,
      "Ġforgiveness": 6878,
      "Ġtrusted": 6879,
      "ĠKingly": 6880,
      "ERS": 6881,
      "exts": 6882,
      "ratitude": 6883,
      "ucing": 6884,
      "ucent": 6885,
      "Ġope": 6886,
      "Ġopenly": 6887,
      "Ġopinion": 6888,
      "Ġdropt": 6889,
      "Ġdropping": 6890,
      "Ġdrooping": 6891,
      "Ġdwells": 6892,
      "Ġdwellings": 6893,
      "Ġlisted": 6894,
      "etta": 6895,
      "etting": 6896,
      "Ġsoftly": 6897,
      "ĠTragic": 6898,
      "ĠFlute": 6899,
      "Ġbreaks": 6900,
      "eousness": 6901,
      "olet": 6902,
      "spread": 6903,
      "ĠUr": 6904,
      "ĠUpon": 6905,
      "ĠUPON": 6906,
      "Ġerst": 6907,
      "Ġairy": 6908,
      "Ġmodest": 6909,
      "Ġmoderate": 6910,
      "Ġmiddle": 6911,
      "Ġlawful": 6912,
      "Ġpastoral": 6913,
      "Ġindivid": 6914,
      "Ġinvok": 6915,
      "Ġinvinc": 6916,
      "Ġgroan": 6917,
      "Ġgroves": 6918,
      "Ġgross": 6919,
      "ĠItalians": 6920,
      "Ġrecord": 6921,
      "Ġrecover": 6922,
      "Ġreconc": 6923,
      "Ġreciprocal": 6924,
      "Ġredoubl": 6925,
      "ĠPlat": 6926,
      "ĠAiry": 6927,
      "Ġsufficient": 6928,
      "ĠOrgan": 6929,
      "Ġdevice": 6930,
      "Ġdevours": 6931,
      "Ġarmes": 6932,
      "XVI": 6933,
      "XVII": 6934,
      "XVIII": 6935,
      "aphim": 6936,
      "doms": 6937,
      "Ġ700": 6938,
      "Ġ800": 6939,
      "Ġharmonious": 6940,
      "Ġfraught": 6941,
      "Ġfurder": 6942,
      "Ġdreaded": 6943,
      "Ġdreadful": 6944,
      "Ġdreadfull": 6945,
      "Ġcasts": 6946,
      "ĠScot": 6947,
      "ĠComm": 6948,
      "ĠCompos": 6949,
      "Ġvaliant": 6950,
      "Ġchiefest": 6951,
      "Ġunfortun": 6952,
      "Ġunfinish": 6953,
      "Ġblessings": 6954,
      "Ġblackest": 6955,
      "Ġdecay": 6956,
      "Ġdeceas": 6957,
      "Ġdecree": 6958,
      "Ġdecides": 6959,
      "Ġriddle": 6960,
      "Ġdoubtful": 6961,
      "Already": 6962,
      "Ġsonnets": 6963,
      "Ġsisters": 6964,
      "Ġwatchful": 6965,
      "Ġmonument": 6966,
      "Ġmonarch": 6967,
      "Ġmusical": 6968,
      "Ġfancies": 6969,
      "Ġbraver": 6970,
      "Ġterf": 6971,
      "Ġterm": 6972,
      "Ġterror": 6973,
      "Ġtroubled": 6974,
      "Ġcup": 6975,
      "Ġcruelty": 6976,
      "Ġcrystal": 6977,
      "ĠIdolatrous": 6978,
      "Ġrequire": 6979,
      "Ġrequite": 6980,
      "Ġbegun": 6981,
      "ĠApril": 6982,
      "Ġ1270": 6983,
      "ĠMargare": 6984,
      "Ġvowel": 6985,
      "Ġunwary": 6986,
      "Ġunworth": 6987,
      "Ġunweeting": 6988,
      "Ġblissful": 6989,
      "Ġplaying": 6990,
      "Ġextreme": 6991,
      "Ġprayer": 6992,
      "Ġprayers": 6993,
      "Ġafflicted": 6994,
      "Anno": 6995,
      "Goddess": 6996,
      "SONNET": 6997,
      "mans": 6998,
      "manuscript": 6999,
      "obson": 7000,
      "point": 7001,
      "Ġ900": 7002,
      "Ġwinged": 7003,
      "Ġobvious": 7004,
      "Ġobedience": 7005,
      "Ġmai": 7006,
      "Ġmoves": 7007,
      "Ġfruits": 7008,
      "Ġfrustrate": 7009,
      "Ġtrembling": 7010,
      "Ġincessant": 7011,
      "Ġincrease": 7012,
      "Ġinconsisten": 7013,
      "Ġinchanter": 7014,
      "Ġinchanted": 7015,
      "Ġstrana": 7016,
      "ĠCountry": 7017,
      "ĠGrace": 7018,
      "Ġconstant": 7019,
      "aunted": 7020,
      "Ġ1000": 7021,
      "Ġprofan": 7022,
      "Ġprofest": 7023,
      "Ġprofane": 7024,
      "Ġviewles": 7025,
      "ANE": 7026,
      "ANS": 7027,
      "ARCA": 7028,
      "Two": 7029,
      "Twill": 7030,
      "Twixt": 7031,
      "pitious": 7032,
      "Ġinglorious": 7033,
      "Ġingrateful": 7034,
      "Ġingratitude": 7035,
      "thority": 7036,
      "Ġsenses": 7037,
      "Ġwearied": 7038,
      "Ġmarks": 7039,
      "Ġfetter": 7040,
      "Ġdirect": 7041,
      "Ġlavers": 7042,
      "Ġinwardly": 7043,
      "Ġhairs": 7044,
      "Ġhairy": 7045,
      "Ġundert": 7046,
      "Ġbends": 7047,
      "Ġfortitude": 7048,
      "ĠAnch": 7049,
      "ĠAttick": 7050,
      "ĠHarp": 7051,
      "ĠHarbinger": 7052,
      "ĠHarapha": 7053,
      "ĠMonument": 7054,
      "Ġvanity": 7055,
      "umphing": 7056,
      "Ġexpress": 7057,
      "Ġexpiate": 7058,
      "Ġprovok": 7059,
      "Ġdispleasure": 7060,
      "Ġpretence": 7061,
      "Ġpretended": 7062,
      "Ġprevented": 7063,
      "Ġjudgement": 7064,
      "Ġwomans": 7065,
      "Ġcorrect": 7066,
      "Ġcorrected": 7067,
      "Ġcorrects": 7068,
      "Ġdifference": 7069,
      "ITY": 7070,
      "Perche": 7071,
      "Swift": 7072,
      "affad": 7073,
      "longs": 7074,
      "Ġoppose": 7075,
      "Ġobserve": 7076,
      "Ġflying": 7077,
      "Ġbarr": 7078,
      "Ġbarbar": 7079,
      "Ġburdens": 7080,
      "Ġtryal": 7081,
      "Ġinstead": 7082,
      "Ġinstinct": 7083,
      "Ġinstructed": 7084,
      "second": 7085,
      "secrated": 7086,
      "Ġhabitation": 7087,
      "Ġrefra": 7088,
      "Ġrefresh": 7089,
      "ashion": 7090,
      "Ġyields": 7091,
      "Ġyielded": 7092,
      "ĠTribes": 7093,
      "Ġfailing": 7094,
      "Ġdegra": 7095,
      "Ġdegree": 7096,
      "Ġdegener": 7097,
      "Ġ1634": 7098,
      "Ġ1638": 7099,
      "Ġdiscern": 7100,
      "Ġdiscover": 7101,
      "Ġdeserts": 7102,
      "ĠInfancy": 7103,
      "Ġemphatic": 7104,
      "Ġdefenceless": 7105,
      "mmed": 7106,
      "undant": 7107,
      "Ġveil": 7108,
      "Ġwedded": 7109,
      "Ġwitnes": 7110,
      "Ġwoods": 7111,
      "Ġhurl": 7112,
      "represent": 7113,
      "Ġmalice": 7114,
      "Ġfinal": 7115,
      "Ġfrolick": 7116,
      "Ġfondly": 7117,
      "Ġdamn": 7118,
      "Ġcolours": 7119,
      "Ġlimits": 7120,
      "Ġlimbs": 7121,
      "Ġpitch": 7122,
      "Ġpunctu": 7123,
      "ĠSphears": 7124,
      "ĠLawn": 7125,
      "ĠHostile": 7126,
      "ĠMagic": 7127,
      "ĠGiants": 7128,
      "rudging": 7129,
      "Ġvolse": 7130,
      "Ġchildren": 7131,
      "ĠElm": 7132,
      "Ġlibertie": 7133,
      "Ġblasted": 7134,
      "ummets": 7135,
      "ĠReign": 7136,
      "ĠTherefore": 7137,
      "Ġabsent": 7138,
      "Ġabsence": 7139,
      "Ġabsurd": 7140,
      "Ġfoolish": 7141,
      "Ġaddrest": 7142,
      "Ġcontemptible": 7143,
      "Ġsufferings": 7144,
      "Ġreasonings": 7145,
      "Ġacceptable": 7146,
      "Expect": 7147,
      "Scarce": 7148,
      "herb": 7149,
      "iii": 7150,
      "jesty": 7151,
      "Ġrowl": 7152,
      "Ġsignes": 7153,
      "Ġsatisfie": 7154,
      "Ġwrongs": 7155,
      "Ġminor": 7156,
      "Ġmutable": 7157,
      "Ġmutual": 7158,
      "Ġmistook": 7159,
      "Ġmassy": 7160,
      "Ġmoving": 7161,
      "Ġbride": 7162,
      "Ġbrief": 7163,
      "Ġbranching": 7164,
      "Ġbattail": 7165,
      "Ġdetra": 7166,
      "Ġdrive": 7167,
      "Ġdreams": 7168,
      "Ġcaus": 7169,
      "Ġcooling": 7170,
      "Ġcaptiv": 7171,
      "Ġcaptive": 7172,
      "Ġcaptivity": 7173,
      "Ġlamentation": 7174,
      "Ġpopol": 7175,
      "Ġpopular": 7176,
      "Ġwheron": 7177,
      "Ġwherunto": 7178,
      "Ġreceived": 7179,
      "Ġbefall": 7180,
      "Ġbefriend": 7181,
      "assembly": 7182,
      "ĠAdv": 7183,
      "ĠHydra": 7184,
      "ĠCloud": 7185,
      "ĠGentle": 7186,
      "ĠBarn": 7187,
      "ĠTrees": 7188,
      "ĠTrent": 7189,
      "ĠTimbre": 7190,
      "ĠEbon": 7191,
      "Ġknock": 7192,
      "Ġdebas": 7193,
      "Ġplanted": 7194,
      "Ġenclin": 7195,
      "Ġencline": 7196,
      "Ġenclos": 7197,
      "Ġfooting": 7198,
      "Ġimbru": 7199,
      "Ġdespis": 7200,
      "Ġdespair": 7201,
      "Ġdescends": 7202,
      "Ġdescended": 7203,
      "Ġaffects": 7204,
      "Ġsilently": 7205,
      "Ġmixture": 7206,
      "Ġdestroyer": 7207,
      "Ġpossession": 7208,
      "Ġindignation": 7209,
      "Ġconstrains": 7210,
      "Ġexcellence": 7211,
      "Ġmeditation": 7212,
      "ĠReligious": 7213,
      "Ġemphasize": 7214,
      "Ġmurmur": 7215,
      "Canz": 7216,
      "Deceiv": 7217,
      "Disp": 7218,
      "New": 7219,
      "fluous": 7220,
      "folded": 7221,
      "headed": 7222,
      "pressive": 7223,
      "ĠUnivers": 7224,
      "Ġastray": 7225,
      "Ġastonishment": 7226,
      "Ġsorts": 7227,
      "Ġsighing": 7228,
      "Ġhealing": 7229,
      "Ġmerit": 7230,
      "Ġmerry": 7231,
      "Ġfuel": 7232,
      "Ġfixed": 7233,
      "Ġbusie": 7234,
      "Ġbusiness": 7235,
      "Ġdwelt": 7236,
      "Ġdemure": 7237,
      "Ġdealt": 7238,
      "Ġdances": 7239,
      "Ġdancing": 7240,
      "Ġdainty": 7241,
      "Ġdainties": 7242,
      "Ġlodg": 7243,
      "Ġlodge": 7244,
      "Ġhaunted": 7245,
      "ĠSlave": 7246,
      "ĠSlaves": 7247,
      "ĠSaturns": 7248,
      "Ġstudies": 7249,
      "ĠPsalms": 7250,
      "ĠPipe": 7251,
      "ĠPipes": 7252,
      "Ġforbidden": 7253,
      "Ġashes": 7254,
      "ĠGolden": 7255,
      "uskind": 7256,
      "Ġspeeches": 7257,
      "ĠWoman": 7258,
      "ĠWindes": 7259,
      "Ġplaces": 7260,
      "Ġprophetic": 7261,
      "Ġdescent": 7262,
      "Ġdescry": 7263,
      "ĠArcady": 7264,
      "ĠArcadia": 7265,
      "ĠArmies": 7266,
      "Ġmischance": 7267,
      "Ġbrooks": 7268,
      "Ġwriting": 7269,
      "Ġcourteous": 7270,
      "Ġcourtesie": 7271,
      "Ġtemperance": 7272,
      "Ġtreason": 7273,
      "Ġtreasure": 7274,
      "ĠCynthia": 7275,
      "ĠCynosure": 7276,
      "ĠEnemy": 7277,
      "Ġarguments": 7278,
      "Arm": 7279,
      "Benighted": 7280,
      "Depart": 7281,
      "ELL": 7282,
      "Fearless": 7283,
      "Guard": 7284,
      "Pluck": 7285,
      "Regain": 7286,
      "Sleep": 7287,
      "Sleek": 7288,
      "Trip": 7289,
      "Triumphing": 7290,
      "Warble": 7291,
      "Warbl": 7292,
      "breaker": 7293,
      "pathize": 7294,
      "xxx": 7295,
      "ĠZeb": 7296,
      "therefore": 7297,
      "Ġsusp": 7298,
      "Ġsuspect": 7299,
      "Ġwreaths": 7300,
      "Ġoblig": 7301,
      "Ġmiracle": 7302,
      "Ġmagnanim": 7303,
      "Ġfleecy": 7304,
      "Ġbereav": 7305,
      "Ġbruis": 7306,
      "Ġbounties": 7307,
      "Ġbounteous": 7308,
      "Ġtumult": 7309,
      "Ġdeaf": 7310,
      "Ġdearest": 7311,
      "Ġdanger": 7312,
      "Ġcovert": 7313,
      "Ġpuo": 7314,
      "Ġpaths": 7315,
      "anthus": 7316,
      "seemed": 7317,
      "seemly": 7318,
      "ĠSyrinx": 7319,
      "ĠSenat": 7320,
      "ĠSilence": 7321,
      "ĠSevern": 7322,
      "ĠServants": 7323,
      "ĠSepulcher": 7324,
      "Ġstarry": 7325,
      "Ġstruck": 7326,
      "Ġstruct": 7327,
      "Ġmeerly": 7328,
      "ĠPRESENT": 7329,
      "ĠPerhaps": 7330,
      "ĠPauls": 7331,
      "ĠHonour": 7332,
      "ĠMatron": 7333,
      "ĠMitre": 7334,
      "ĠContempl": 7335,
      "ĠGreen": 7336,
      "ĠGreek": 7337,
      "Ġvillager": 7338,
      "ĠBlind": 7339,
      "ĠBabe": 7340,
      "ĠBeasts": 7341,
      "Ġsupreme": 7342,
      "Ġchanges": 7343,
      "Ġunexpressive": 7344,
      "Ġnecessity": 7345,
      "Ġnecessary": 7346,
      "ĠOxford": 7347,
      "ĠEgypt": 7348,
      "ĠEgerton": 7349,
      "ĠExercise": 7350,
      "ĠWeeds": 7351,
      "ĠWarriour": 7352,
      "Ġfacsim": 7353,
      "Ġdeclare": 7354,
      "Ġjoints": 7355,
      "Ġjealousie": 7356,
      "ĠRighteousness": 7357,
      "Ġdisposal": 7358,
      "Ġdisposition": 7359,
      "Ġimplore": 7360,
      "Ġpraiers": 7361,
      "Ġpreferring": 7362,
      "Ġcontrary": 7363,
      "Ġcheerfull": 7364,
      "Ġodiously": 7365,
      "Ġfrequently": 7366,
      "Ġstrictly": 7367,
      "Ġstrictest": 7368,
      "Ġpublished": 7369,
      "ĠTrumpets": 7370,
      "Ġacquaint": 7371,
      "Ġtroubles": 7372,
      "Ġmajesty": 7373,
      "Ġmajestick": 7374,
      "Ġhurtfull": 7375,
      "Confess": 7376,
      "Ġcalamities": 7377,
      "Ġcalamitous": 7378,
      "ĠSacrifice": 7379,
      "Ġrebellions": 7380,
      "Ġenthroned": 7381,
      "CHEST": 7382,
      "Contempt": 7383,
      "Daily": 7384,
      "Draws": 7385,
      "Gentle": 7386,
      "ICK": 7387,
      "Nightly": 7388,
      "Nymphs": 7389,
      "Philist": 7390,
      "cinal": 7391,
      "maids": 7392,
      "urable": 7393,
      "Ġzeal": 7394,
      "Ġesp": 7395,
      "Ġessence": 7396,
      "Ġauthority": 7397,
      "Ġavoid": 7398,
      "Ġwidow": 7399,
      "Ġhinders": 7400,
      "Ġmeasur": 7401,
      "Ġmagick": 7402,
      "Ġmercies": 7403,
      "ispering": 7404,
      "Ġfingers": 7405,
      "Ġfuture": 7406,
      "Ġfuner": 7407,
      "Ġfrighted": 7408,
      "Ġfestivals": 7409,
      "Ġbanish": 7410,
      "Ġbleed": 7411,
      "Ġburial": 7412,
      "Ġtangl": 7413,
      "Ġturbulent": 7414,
      "Ġcensure": 7415,
      "Ġlordly": 7416,
      "Ġpiled": 7417,
      "Ġinferior": 7418,
      "Ġiniquity": 7419,
      "Ġgeneral": 7420,
      "ceeded": 7421,
      "ĠSeraphim": 7422,
      "elieve": 7423,
      "ribution": 7424,
      "Ġuphold": 7425,
      "Ġstoop": 7426,
      "Ġstroke": 7427,
      "Ġstubble": 7428,
      "Ġrecompense": 7429,
      "ĠLoves": 7430,
      "ĠLucina": 7431,
      "ĠLATIN": 7432,
      "ĠPersons": 7433,
      "ĠPredicament": 7434,
      "ĠAGONIST": 7435,
      "ĠAgainst": 7436,
      "ĠHesper": 7437,
      "ĠHerds": 7438,
      "ĠMajesty": 7439,
      "ĠMASK": 7440,
      "ĠCrystall": 7441,
      "ĠCowslips": 7442,
      "ĠCounce": 7443,
      "ĠColledge": 7444,
      "ĠCupid": 7445,
      "Ġallowance": 7446,
      "Ġornament": 7447,
      "Ġvigorous": 7448,
      "Ġvapours": 7449,
      "ĠBondage": 7450,
      "ĠBacchus": 7451,
      "ĠTorches": 7452,
      "ĠTraytor": 7453,
      "Ġunshorn": 7454,
      "ĠEthi": 7455,
      "ĠEurope": 7456,
      "ĠElysian": 7457,
      "Ġlikest": 7458,
      "ĠDaisies": 7459,
      "ĠDiana": 7460,
      "ĠWisdoms": 7461,
      "Ġdeceitful": 7462,
      "unkets": 7463,
      "Ġflattering": 7464,
      "Ġfleshly": 7465,
      "ĠREA": 7466,
      "ĠRobber": 7467,
      "Ġsafely": 7468,
      "Ġglistring": 7469,
      "Ġargues": 7470,
      "Ġrarely": 7471,
      "Ġamends": 7472,
      "Ġproportion": 7473,
      "Ġprosperous": 7474,
      "Forsook": 7475,
      "Ġclustring": 7476,
      "Ġrumour": 7477,
      "Ġimitated": 7478,
      "Ġverdit": 7479,
      "Ġgraciously": 7480,
      "Ġprepare": 7481,
      "Ġapprehend": 7482,
      "Ġremorse": 7483,
      "Ġcontinues": 7484,
      "Ġassaults": 7485,
      "Ġpursuit": 7486,
      "Ġimportant": 7487,
      "ĠAmaranthus": 7488,
      "Ġcounterfeit": 7489,
      "Ġembrace": 7490,
      "ESTIES": 7491,
      "Ġinflicted": 7492,
      "Ġtranslucent": 7493,
      "Ġwritten": 7494,
      "Ġrelieves": 7495,
      "ĠPluto": 7496,
      "Ġinnumerable": 7497,
      "Ġunparallel": 7498,
      "Ġexceeding": 7499,
      "Ġsensualty": 7500,
      "Ġvanquisht": 7501,
      "ĠPalestine": 7502,
      "Smooth": 7503,
      "Ġdetermining": 7504,
      "Ġthreatnings": 7505,
      "Ġcontradiction": 7506,
      "Ġdiligent": 7507,
      "Ġprotection": 7508,
      "Angel": 7509,
      "According": 7510,
      "Beauty": 7511,
      "Brutus": 7512,
      "Cyriack": 7513,
      "Driving": 7514,
      "Dishonour": 7515,
      "EHOVAH": 7516,
      "LISH": 7517,
      "Mentre": 7518,
      "Private": 7519,
      "Regard": 7520,
      "Semichor": 7521,
      "cadem": 7522,
      "jugal": 7523,
      "Ġ-----------------------------------------": 7524,
      "Ġ------------------------------": 7525,
      "Ġthreds": 7526,
      "Ġaggra": 7527,
      "Ġsalute": 7528,
      "Ġsandy": 7529,
      "Ġsnowy": 7530,
      "Ġsympathize": 7531,
      "Ġwrincled": 7532,
      "Ġwipe": 7533,
      "Ġhomely": 7534,
      "Ġhuddling": 7535,
      "Ġobtain": 7536,
      "Ġoozy": 7537,
      "Ġmazes": 7538,
      "Ġtrespass": 7539,
      "enemy": 7540,
      "Ġdrouth": 7541,
      "Ġdazling": 7542,
      "Ġcleer": 7543,
      "Ġcases": 7544,
      "Ġcunning": 7545,
      "Ġcredulous": 7546,
      "Ġlifetime": 7547,
      "Ġlagging": 7548,
      "Ġnaufrag": 7549,
      "Ġtools": 7550,
      "Ġincident": 7551,
      "Ġgaudy": 7552,
      "ĠSisters": 7553,
      "ĠSecond": 7554,
      "ĠSavage": 7555,
      "ĠSorcerer": 7556,
      "ĠSanctuary": 7557,
      "Ġstartle": 7558,
      "Ġrevelry": 7559,
      "asperate": 7560,
      "Ġmysterious": 7561,
      "ĠLudlow": 7562,
      "ĠLocrine": 7563,
      "ĠLAWES": 7564,
      "ĠPrayers": 7565,
      "ĠAbraham": 7566,
      "ĠAthenian": 7567,
      "ĠArethuse": 7568,
      "ĠHinds": 7569,
      "ĠMistres": 7570,
      "ĠMORNING": 7571,
      "ĠMAIESTIES": 7572,
      "ĠMurtherer": 7573,
      "ĠCarrier": 7574,
      "ĠGardens": 7575,
      "Ġvouchsafe": 7576,
      "ĠBridgewater": 7577,
      "Ġspectacle": 7578,
      "Ġsublime": 7579,
      "ĠTabern": 7580,
      "ĠTetrachordon": 7581,
      "ĠTIME": 7582,
      "ĠTravailer": 7583,
      "ĠFAIR": 7584,
      "ĠFestival": 7585,
      "ĠForests": 7586,
      "Ġchoicest": 7587,
      "indicate": 7588,
      "Ġunemphatic": 7589,
      "Ġungodly": 7590,
      "ĠOccasions": 7591,
      "ĠEternity": 7592,
      "ĠEuripides": 7593,
      "ĠENGLISH": 7594,
      "Ġlikenes": 7595,
      "Ġblunders": 7596,
      "Ġblasphem": 7597,
      "Ġfarewel": 7598,
      "ĠNectar": 7599,
      "ospitable": 7600,
      "Ġglittering": 7601,
      "Ġglimmering": 7602,
      "Ġraigns": 7603,
      "Ġalwayes": 7604,
      "Ġambitious": 7605,
      "ĠJollity": 7606,
      "ĠVacation": 7607,
      "Ġperplex": 7608,
      "Ġperpetual": 7609,
      "departure": 7610,
      "Ġdespoil": 7611,
      "Ġreproduces": 7612,
      "Ġleggiad": 7613,
      "Shakespeare": 7614,
      "ĠAmbrosial": 7615,
      "Unmindfull": 7616,
      "Ġpriviledge": 7617,
      "Ġeminently": 7618,
      "Ġinvincible": 7619,
      "Ġunfortunate": 7620,
      "ĠMargaret": 7621,
      "SONNETS": 7622,
      "Ġbarbarous": 7623,
      "Ġburdensom": 7624,
      "Ġpunctuation": 7625,
      "ĠPRESENTED": 7626,
      "ĠContemplation": 7627,
      "CHESTER": 7628,
      "ĠAGONISTES": 7629
    },
    "merges": [
      [
        "Ġ",
        "Ġ"
      ],
      [
        "ĠĠ",
        "ĠĠ"
      ],
      [
        "č",
        "Ċ"
      ],
      [
        "t",
        "h"
      ],
      [
        "Ġ",
        "th"
      ],
      [
        "ĠĠĠĠ",
        "ĠĠĠĠ"
      ],
      [
        "Ġ",
        "a"
      ],
      [
        "i",
        "n"
      ],
      [
        "Ġ",
        "s"
      ],
      [
        "e",
        "r"
      ],
      [
        "n",
        "d"
      ],
      [
        "Ġ",
        "w"
      ],
      [
        "Ġth",
        "e"
      ],
      [
        "Ġ",
        "h"
      ],
      [
        "Ġ",
        "o"
      ],
      [
        "r",
        "e"
      ],
      [
        "o",
        "u"
      ],
      [
        "Ġ",
        "m"
      ],
      [
        "i",
        "s"
      ],
      [
        "Ġ",
        "f"
      ],
      [
        "Ġ",
        "b"
      ],
      [
        "Ġ",
        "t"
      ],
      [
        "e",
        "s"
      ],
      [
        "o",
        "n"
      ],
      [
        "o",
        "r"
      ],
      [
        "a",
        "t"
      ],
      [
        "l",
        "l"
      ],
      [
        "e",
        "n"
      ],
      [
        "Ġ",
        "d"
      ],
      [
        "e",
        "a"
      ],
      [
        "ĠĠĠĠĠĠĠĠ",
        "ĠĠĠĠĠĠĠĠ"
      ],
      [
        "Ġ",
        "c"
      ],
      [
        "Ġa",
        "nd"
      ],
      [
        "Ġ",
        "l"
      ],
      [
        "Ġo",
        "f"
      ],
      [
        "Ġ",
        "p"
      ],
      [
        "Ġ",
        "n"
      ],
      [
        "s",
        "t"
      ],
      [
        "in",
        "g"
      ],
      [
        "Ġt",
        "o"
      ],
      [
        "-",
        "-"
      ],
      [
        "a",
        "n"
      ],
      [
        "Ġ",
        "in"
      ],
      [
        "T",
        "h"
      ],
      [
        "o",
        "w"
      ],
      [
        "e",
        "d"
      ],
      [
        "o",
        "m"
      ],
      [
        "i",
        "t"
      ],
      [
        "'",
        "d"
      ],
      [
        "g",
        "h"
      ],
      [
        "a",
        "r"
      ],
      [
        "i",
        "th"
      ],
      [
        "Ġ",
        "g"
      ],
      [
        "i",
        "r"
      ],
      [
        "c",
        "e"
      ],
      [
        "l",
        "e"
      ],
      [
        "Ġw",
        "h"
      ],
      [
        "s",
        "e"
      ],
      [
        "ĠĠ",
        "Ġ"
      ],
      [
        "Ġ",
        "I"
      ],
      [
        "v",
        "e"
      ],
      [
        "A",
        "nd"
      ],
      [
        "c",
        "h"
      ],
      [
        "o",
        "t"
      ],
      [
        "e",
        "t"
      ],
      [
        "Ġh",
        "a"
      ],
      [
        "r",
        "a"
      ],
      [
        "Ġ",
        "S"
      ],
      [
        "u",
        "t"
      ],
      [
        "gh",
        "t"
      ],
      [
        "e",
        "l"
      ],
      [
        "Ġw",
        "ith"
      ],
      [
        "r",
        "i"
      ],
      [
        "Ġ",
        "u"
      ],
      [
        "Ġs",
        "h"
      ],
      [
        "ea",
        "r"
      ],
      [
        "--",
        "--"
      ],
      [
        "l",
        "d"
      ],
      [
        "er",
        "e"
      ],
      [
        "a",
        "m"
      ],
      [
        "o",
        "d"
      ],
      [
        "Ġs",
        "t"
      ],
      [
        "Ġ",
        "re"
      ],
      [
        "Ġ",
        "e"
      ],
      [
        "a",
        "l"
      ],
      [
        "Ġb",
        "e"
      ],
      [
        "i",
        "d"
      ],
      [
        "i",
        "m"
      ],
      [
        "l",
        "y"
      ],
      [
        "a",
        "y"
      ],
      [
        "u",
        "r"
      ],
      [
        "Ġth",
        "at"
      ],
      [
        "Ġh",
        "is"
      ],
      [
        "Ġth",
        "y"
      ],
      [
        "en",
        "t"
      ],
      [
        "a",
        "s"
      ],
      [
        "v",
        "er"
      ],
      [
        "r",
        "o"
      ],
      [
        "i",
        "on"
      ],
      [
        "a",
        "d"
      ],
      [
        "Ġm",
        "y"
      ],
      [
        "Ġo",
        "n"
      ],
      [
        "Ġm",
        "e"
      ],
      [
        "Ġn",
        "ot"
      ],
      [
        "Ġ",
        "y"
      ],
      [
        "Ġ",
        "L"
      ],
      [
        "W",
        "h"
      ],
      [
        "i",
        "ll"
      ],
      [
        "Ġth",
        "ou"
      ],
      [
        "es",
        "t"
      ],
      [
        "Th",
        "e"
      ],
      [
        "i",
        "l"
      ],
      [
        "a",
        "in"
      ],
      [
        "ou",
        "r"
      ],
      [
        "Ġ",
        "P"
      ],
      [
        "Ġf",
        "or"
      ],
      [
        "Ġ",
        "A"
      ],
      [
        "Ġ",
        "1"
      ],
      [
        "i",
        "ght"
      ],
      [
        "Ġ",
        "H"
      ],
      [
        "a",
        "ll"
      ],
      [
        "Ġ",
        "M"
      ],
      [
        "Ġa",
        "s"
      ],
      [
        "o",
        "re"
      ],
      [
        "Ġ",
        "C"
      ],
      [
        "ĠĠĠĠĠĠĠĠĠĠĠĠĠĠĠĠ",
        "ĠĠĠĠĠĠĠĠ"
      ],
      [
        "Ġa",
        "ll"
      ],
      [
        "r",
        "om"
      ],
      [
        "T",
        "o"
      ],
      [
        "ou",
        "s"
      ],
      [
        "es",
        "s"
      ],
      [
        "c",
        "k"
      ],
      [
        "Ġ",
        "G"
      ],
      [
        "Ġo",
        "r"
      ],
      [
        "Ġ",
        "is"
      ],
      [
        "g",
        "e"
      ],
      [
        "e",
        "e"
      ],
      [
        "r",
        "u"
      ],
      [
        "Ġ",
        "v"
      ],
      [
        "c",
        "t"
      ],
      [
        "i",
        "f"
      ],
      [
        "Ġs",
        "o"
      ],
      [
        "Ġ",
        "B"
      ],
      [
        "er",
        "s"
      ],
      [
        "u",
        "s"
      ],
      [
        "Ġh",
        "er"
      ],
      [
        "Ġs",
        "p"
      ],
      [
        "Ġthe",
        "e"
      ],
      [
        "Ġ",
        "it"
      ],
      [
        "r",
        "ou"
      ],
      [
        "or",
        "d"
      ],
      [
        "----",
        "----"
      ],
      [
        "Ġs",
        "u"
      ],
      [
        "a",
        "st"
      ],
      [
        "Ġf",
        "rom"
      ],
      [
        "ĠĠĠĠĠĠĠĠĠĠĠĠĠĠĠĠ",
        "ĠĠĠĠ"
      ],
      [
        "O",
        "f"
      ],
      [
        "Ġ",
        "T"
      ],
      [
        "k",
        "e"
      ],
      [
        "Ġth",
        "is"
      ],
      [
        "e",
        "ll"
      ],
      [
        "on",
        "g"
      ],
      [
        "Ġ",
        "F"
      ],
      [
        "re",
        "s"
      ],
      [
        "n",
        "t"
      ],
      [
        "Ġa",
        "t"
      ],
      [
        "Ġc",
        "h"
      ],
      [
        "i",
        "e"
      ],
      [
        "th",
        "er"
      ],
      [
        "Ġb",
        "y"
      ],
      [
        "e",
        "m"
      ],
      [
        "in",
        "d"
      ],
      [
        "in",
        "e"
      ],
      [
        "an",
        "t"
      ],
      [
        "ou",
        "ld"
      ],
      [
        "Ġu",
        "n"
      ],
      [
        "Ġh",
        "e"
      ],
      [
        "o",
        "od"
      ],
      [
        "Ġn",
        "e"
      ],
      [
        "Ġn",
        "o"
      ],
      [
        "'",
        "s"
      ],
      [
        "Th",
        "at"
      ],
      [
        "is",
        "t"
      ],
      [
        "i",
        "ch"
      ],
      [
        "o",
        "se"
      ],
      [
        "Ġ",
        "O"
      ],
      [
        "p",
        "h"
      ],
      [
        "Ġ",
        "E"
      ],
      [
        "a",
        "nd"
      ],
      [
        "W",
        "ith"
      ],
      [
        "b",
        "le"
      ],
      [
        "at",
        "e"
      ],
      [
        "Ġthe",
        "ir"
      ],
      [
        "Ġl",
        "o"
      ],
      [
        "p",
        "t"
      ],
      [
        "Ġha",
        "ve"
      ],
      [
        "Ġh",
        "im"
      ],
      [
        "q",
        "u"
      ],
      [
        "Ġ",
        "k"
      ],
      [
        "Ġc",
        "om"
      ],
      [
        "Ġl",
        "i"
      ],
      [
        "Ġw",
        "as"
      ],
      [
        "Ġd",
        "o"
      ],
      [
        "n",
        "g"
      ],
      [
        "Ġb",
        "l"
      ],
      [
        "B",
        "ut"
      ],
      [
        "o",
        "l"
      ],
      [
        "Ġthe",
        "m"
      ],
      [
        "u",
        "l"
      ],
      [
        "Ġ",
        "D"
      ],
      [
        "Ġb",
        "ut"
      ],
      [
        "en",
        "ce"
      ],
      [
        "e",
        "nd"
      ],
      [
        "Ġc",
        "on"
      ],
      [
        "i",
        "c"
      ],
      [
        "t",
        "er"
      ],
      [
        "u",
        "m"
      ],
      [
        "I",
        "n"
      ],
      [
        "is",
        "e"
      ],
      [
        "u",
        "st"
      ],
      [
        "Ġ",
        "W"
      ],
      [
        "Ġf",
        "a"
      ],
      [
        "Ġd",
        "e"
      ],
      [
        "ĠG",
        "od"
      ],
      [
        "p",
        "p"
      ],
      [
        "am",
        "e"
      ],
      [
        "i",
        "es"
      ],
      [
        "ar",
        "d"
      ],
      [
        "Ġthe",
        "n"
      ],
      [
        "r",
        "ow"
      ],
      [
        "Ġthe",
        "y"
      ],
      [
        "Ġp",
        "l"
      ],
      [
        "or",
        "t"
      ],
      [
        "ea",
        "v"
      ],
      [
        "u",
        "n"
      ],
      [
        "i",
        "v"
      ],
      [
        "o",
        "ld"
      ],
      [
        "u",
        "re"
      ],
      [
        "Ġsh",
        "all"
      ],
      [
        "Ġwh",
        "at"
      ],
      [
        "o",
        "st"
      ],
      [
        "Ġ",
        "j"
      ],
      [
        "Ġf",
        "l"
      ],
      [
        "Ġn",
        "ow"
      ],
      [
        "Ġwh",
        "o"
      ],
      [
        "Ġs",
        "om"
      ],
      [
        "i",
        "ous"
      ],
      [
        "Ġ",
        "N"
      ],
      [
        "is",
        "h"
      ],
      [
        "Ġ",
        "R"
      ],
      [
        "Ġh",
        "ear"
      ],
      [
        "ea",
        "d"
      ],
      [
        "Ġu",
        "p"
      ],
      [
        "o",
        "s"
      ],
      [
        "Ġw",
        "ill"
      ],
      [
        "Ġs",
        "a"
      ],
      [
        "Ġwh",
        "ich"
      ],
      [
        "Ġa",
        "n"
      ],
      [
        "Ġm",
        "ore"
      ],
      [
        "Ġ",
        "Th"
      ],
      [
        "a",
        "u"
      ],
      [
        "Ġs",
        "e"
      ],
      [
        "Ġo",
        "ur"
      ],
      [
        "o",
        "p"
      ],
      [
        "o",
        "k"
      ],
      [
        "r",
        "ing"
      ],
      [
        "ou",
        "nd"
      ],
      [
        "O",
        "r"
      ],
      [
        "i",
        "gh"
      ],
      [
        "i",
        "le"
      ],
      [
        "u",
        "ll"
      ],
      [
        "Ġth",
        "ir"
      ],
      [
        "at",
        "ion"
      ],
      [
        "Ġa",
        "re"
      ],
      [
        "or",
        "n"
      ],
      [
        "ĠĠĠĠĠĠĠĠĠĠĠĠĠĠĠĠĠĠĠĠĠĠĠĠ",
        "ĠĠĠĠ"
      ],
      [
        "Ġg",
        "l"
      ],
      [
        "Ġst",
        "re"
      ],
      [
        "ĠL",
        "ord"
      ],
      [
        "Ġw",
        "or"
      ],
      [
        "Ġsh",
        "e"
      ],
      [
        "Ġm",
        "an"
      ],
      [
        "Ġu",
        "s"
      ],
      [
        "n",
        "ow"
      ],
      [
        "Ġa",
        "r"
      ],
      [
        "Ġm",
        "ay"
      ],
      [
        "it",
        "y"
      ],
      [
        "Ġe",
        "x"
      ],
      [
        "Ġy",
        "ou"
      ],
      [
        "ou",
        "t"
      ],
      [
        "i",
        "re"
      ],
      [
        "Ġ",
        "ra"
      ],
      [
        "Ġ",
        "if"
      ],
      [
        "Ġa",
        "l"
      ],
      [
        "i",
        "g"
      ],
      [
        "Ġa",
        "m"
      ],
      [
        "ea",
        "s"
      ],
      [
        "Ġg",
        "re"
      ],
      [
        "Ġ1",
        "0"
      ],
      [
        "'",
        "t"
      ],
      [
        "i",
        "ck"
      ],
      [
        "--------",
        "--------"
      ],
      [
        "i",
        "ve"
      ],
      [
        "r",
        "an"
      ],
      [
        "Ġs",
        "w"
      ],
      [
        "Ġ",
        "en"
      ],
      [
        "Ġ",
        "And"
      ],
      [
        "Ġha",
        "d"
      ],
      [
        "Ġ1",
        "6"
      ],
      [
        "a",
        "k"
      ],
      [
        "a",
        "th"
      ],
      [
        "a",
        "re"
      ],
      [
        "o",
        "th"
      ],
      [
        "r",
        "in"
      ],
      [
        "Ġp",
        "ro"
      ],
      [
        "id",
        "e"
      ],
      [
        "o",
        "nd"
      ],
      [
        "r",
        "y"
      ],
      [
        "ee",
        "p"
      ],
      [
        "a",
        "b"
      ],
      [
        "f",
        "ore"
      ],
      [
        "i",
        "ce"
      ],
      [
        "Ġha",
        "th"
      ],
      [
        "t",
        "ed"
      ],
      [
        "u",
        "e"
      ],
      [
        "n",
        "s"
      ],
      [
        "Ġa",
        "b"
      ],
      [
        "ing",
        "s"
      ],
      [
        "Ġwh",
        "ere"
      ],
      [
        "F",
        "or"
      ],
      [
        "Ġs",
        "ee"
      ],
      [
        "Ġc",
        "l"
      ],
      [
        "a",
        "ke"
      ],
      [
        "Ġ",
        "ru"
      ],
      [
        "ou",
        "nt"
      ],
      [
        "Ġc",
        "an"
      ],
      [
        "Ġo",
        "ut"
      ],
      [
        "e",
        "ct"
      ],
      [
        "o",
        "y"
      ],
      [
        "u",
        "d"
      ],
      [
        "Ġ",
        "J"
      ],
      [
        "Ġ",
        "ear"
      ],
      [
        "er",
        "t"
      ],
      [
        "Ġe",
        "ver"
      ],
      [
        "Ġy",
        "et"
      ],
      [
        "2",
        "0"
      ],
      [
        "f",
        "f"
      ],
      [
        "g",
        "ain"
      ],
      [
        "Ġ",
        "V"
      ],
      [
        "Ġ",
        "ri"
      ],
      [
        "Ġy",
        "our"
      ],
      [
        "a",
        "g"
      ],
      [
        "Ġd",
        "is"
      ],
      [
        "ĠĠĠĠĠĠĠĠĠĠĠĠĠĠĠĠ",
        "ĠĠĠĠĠĠĠĠĠĠĠĠĠĠĠĠ"
      ],
      [
        "rou",
        "gh"
      ],
      [
        "Ġh",
        "igh"
      ],
      [
        "A",
        "s"
      ],
      [
        "o",
        "ve"
      ],
      [
        "v",
        "es"
      ],
      [
        "Ġth",
        "ere"
      ],
      [
        "nd",
        "er"
      ],
      [
        "Ġp",
        "er"
      ],
      [
        "ar",
        "k"
      ],
      [
        "el",
        "f"
      ],
      [
        "p",
        "l"
      ],
      [
        "t",
        "s"
      ],
      [
        "w",
        "n"
      ],
      [
        "as",
        "s"
      ],
      [
        "u",
        "ch"
      ],
      [
        "Ġf",
        "o"
      ],
      [
        "ĠH",
        "eav"
      ],
      [
        "Ġsu",
        "ch"
      ],
      [
        "a",
        "c"
      ],
      [
        "a",
        "ge"
      ],
      [
        "Ġd",
        "id"
      ],
      [
        "b",
        "l"
      ],
      [
        "Ġ",
        "*"
      ],
      [
        "Ġ",
        "qu"
      ],
      [
        "Ġs",
        "elf"
      ],
      [
        "Ġw",
        "e"
      ],
      [
        "on",
        "s"
      ],
      [
        "Ġd",
        "ay"
      ],
      [
        "an",
        "ce"
      ],
      [
        "Ġg",
        "ood"
      ],
      [
        "Ġha",
        "nd"
      ],
      [
        "Ġk",
        "now"
      ],
      [
        "Ġ",
        "The"
      ],
      [
        "n",
        "ess"
      ],
      [
        "Ġthe",
        "se"
      ],
      [
        "on",
        "e"
      ],
      [
        "t",
        "o"
      ],
      [
        "a",
        "p"
      ],
      [
        "h",
        "e"
      ],
      [
        "m",
        "s"
      ],
      [
        "Ġ",
        "im"
      ],
      [
        "Ġw",
        "ould"
      ],
      [
        "Ġh",
        "ow"
      ],
      [
        "Ġh",
        "ere"
      ],
      [
        "Ġf",
        "ir"
      ],
      [
        "Ġt",
        "ru"
      ],
      [
        "Ġof",
        "f"
      ],
      [
        "c",
        "c"
      ],
      [
        "el",
        "d"
      ],
      [
        "3",
        "0"
      ],
      [
        "e",
        "et"
      ],
      [
        "ng",
        "th"
      ],
      [
        "4",
        "0"
      ],
      [
        "S",
        "am"
      ],
      [
        "f",
        "t"
      ],
      [
        "Ġs",
        "l"
      ],
      [
        "Ġm",
        "ight"
      ],
      [
        "ĠĠĠĠĠĠĠĠĠĠĠĠĠĠĠĠ",
        "ĠĠĠĠĠĠĠĠĠĠĠĠĠĠĠĠĠĠĠĠ"
      ],
      [
        "Ġwh",
        "en"
      ],
      [
        "ĠĠĠĠĠĠĠĠĠĠĠĠĠĠĠĠĠĠĠĠĠĠĠĠ",
        "Ġ"
      ],
      [
        "Ġstre",
        "ngth"
      ],
      [
        "Ġgre",
        "at"
      ],
      [
        "Ġ",
        "ver"
      ],
      [
        "Ġo",
        "wn"
      ],
      [
        "ea",
        "th"
      ],
      [
        "it",
        "e"
      ],
      [
        "se",
        "l"
      ],
      [
        "Ġha",
        "st"
      ],
      [
        "il",
        "t"
      ],
      [
        "i",
        "an"
      ],
      [
        "ou",
        "l"
      ],
      [
        "im",
        "e"
      ],
      [
        "ur",
        "n"
      ],
      [
        "Ġli",
        "ke"
      ],
      [
        "re",
        "e"
      ],
      [
        "Ġl",
        "ong"
      ],
      [
        "ear",
        "s"
      ],
      [
        "if",
        "e"
      ],
      [
        "I",
        "I"
      ],
      [
        "f",
        "ul"
      ],
      [
        "k",
        "s"
      ],
      [
        "Ġth",
        "rough"
      ],
      [
        "Ġo",
        "ther"
      ],
      [
        "Ġm",
        "en"
      ],
      [
        "ow",
        "n"
      ],
      [
        "ow",
        "er"
      ],
      [
        "Wh",
        "ere"
      ],
      [
        "ĠC",
        "h"
      ],
      [
        "5",
        "0"
      ],
      [
        "O",
        "N"
      ],
      [
        "a",
        "ce"
      ],
      [
        "d",
        "e"
      ],
      [
        "Ġ",
        "("
      ],
      [
        "Ġw",
        "ere"
      ],
      [
        "ar",
        "t"
      ],
      [
        "Ġy",
        "e"
      ],
      [
        "Wh",
        "at"
      ],
      [
        "rou",
        "nd"
      ],
      [
        "C",
        "h"
      ],
      [
        "i",
        "ld"
      ],
      [
        "Ġw",
        "ay"
      ],
      [
        "Ġp",
        "ra"
      ],
      [
        "ad",
        "e"
      ],
      [
        "res",
        "s"
      ],
      [
        "a",
        "ble"
      ],
      [
        "i",
        "p"
      ],
      [
        "m",
        "ent"
      ],
      [
        "n",
        "e"
      ],
      [
        "s",
        "h"
      ],
      [
        "Ġa",
        "d"
      ],
      [
        "Ġs",
        "c"
      ],
      [
        "it",
        "s"
      ],
      [
        "'",
        "re"
      ],
      [
        "Y",
        "et"
      ],
      [
        "w",
        "ard"
      ],
      [
        "Ġ",
        "ro"
      ],
      [
        "Ġs",
        "er"
      ],
      [
        "Ġb",
        "re"
      ],
      [
        "Th",
        "ou"
      ],
      [
        "el",
        "y"
      ],
      [
        "N",
        "ot"
      ],
      [
        "a",
        "w"
      ],
      [
        "a",
        "ve"
      ],
      [
        "Ġth",
        "ose"
      ],
      [
        "Ġd",
        "es"
      ],
      [
        "ea",
        "l"
      ],
      [
        "Ġl",
        "et"
      ],
      [
        "it",
        "ion"
      ],
      [
        "Ġ",
        "6"
      ],
      [
        "Ġw",
        "ell"
      ],
      [
        "re",
        "d"
      ],
      [
        "Wh",
        "o"
      ],
      [
        "Ġfir",
        "st"
      ],
      [
        "F",
        "rom"
      ],
      [
        "Ġs",
        "et"
      ],
      [
        "Ġo",
        "ld"
      ],
      [
        "Ġd",
        "el"
      ],
      [
        "ea",
        "st"
      ],
      [
        "Ġl",
        "ight"
      ],
      [
        "Ġg",
        "ra"
      ],
      [
        "Ġsh",
        "ould"
      ],
      [
        "Ġe",
        "y"
      ],
      [
        "Ġon",
        "e"
      ],
      [
        "Ġsom",
        "e"
      ],
      [
        "1",
        "0"
      ],
      [
        "7",
        "0"
      ],
      [
        "M",
        "y"
      ],
      [
        "a",
        "ck"
      ],
      [
        "Ġw",
        "ord"
      ],
      [
        "Ġh",
        "on"
      ],
      [
        "Ġm",
        "ust"
      ],
      [
        "Ġm",
        "ost"
      ],
      [
        "Ġd",
        "ark"
      ],
      [
        "Ġn",
        "ight"
      ],
      [
        "Ġthou",
        "ght"
      ],
      [
        "Ġfa",
        "ir"
      ],
      [
        "H",
        "e"
      ],
      [
        "H",
        "is"
      ],
      [
        "a",
        "z"
      ],
      [
        "e",
        "p"
      ],
      [
        "x",
        "t"
      ],
      [
        "ĠĠĠĠ",
        "ĠĠĠ"
      ],
      [
        "ou",
        "d"
      ],
      [
        "Ġb",
        "est"
      ],
      [
        "ll",
        "ow"
      ],
      [
        "Ġp",
        "re"
      ],
      [
        "Wh",
        "ich"
      ],
      [
        "8",
        "0"
      ],
      [
        "S",
        "o"
      ],
      [
        "a",
        "il"
      ],
      [
        "l",
        "i"
      ],
      [
        "l",
        "ess"
      ],
      [
        "s",
        "on"
      ],
      [
        "Ġa",
        "gain"
      ],
      [
        "re",
        "ad"
      ],
      [
        "ea",
        "k"
      ],
      [
        "Th",
        "en"
      ],
      [
        "ĠS",
        "t"
      ],
      [
        "Ġdo",
        "th"
      ],
      [
        "au",
        "se"
      ],
      [
        "B",
        "y"
      ],
      [
        "b",
        "er"
      ],
      [
        "o",
        "ck"
      ],
      [
        "Ġs",
        "m"
      ],
      [
        "om",
        "e"
      ],
      [
        "Ġe",
        "nd"
      ],
      [
        "g",
        "in"
      ],
      [
        "Ġh",
        "ead"
      ],
      [
        "en",
        "s"
      ],
      [
        "ea",
        "n"
      ],
      [
        "Ġl",
        "ast"
      ],
      [
        "Ġof",
        "t"
      ],
      [
        "Ġbe",
        "fore"
      ],
      [
        "Ġon",
        "ce"
      ],
      [
        "Ġup",
        "on"
      ],
      [
        "ig",
        "n"
      ],
      [
        "9",
        "0"
      ],
      [
        "f",
        "ull"
      ],
      [
        "o",
        "f"
      ],
      [
        "Ġa",
        "pp"
      ],
      [
        "Ġt",
        "w"
      ],
      [
        "Ġt",
        "ri"
      ],
      [
        "an",
        "g"
      ],
      [
        "Ġwh",
        "ile"
      ],
      [
        "Ġst",
        "ill"
      ],
      [
        "Ġne",
        "ver"
      ],
      [
        "Ġar",
        "t"
      ],
      [
        "l",
        "es"
      ],
      [
        "o",
        "v"
      ],
      [
        "p",
        "er"
      ],
      [
        "Ġo",
        "ver"
      ],
      [
        "ea",
        "ce"
      ],
      [
        "Ġc",
        "all"
      ],
      [
        "Ġe",
        "v"
      ],
      [
        "ĠĠĠĠĠĠĠĠĠĠĠĠĠĠĠĠĠĠĠĠ",
        "Ġ"
      ],
      [
        "ort",
        "al"
      ],
      [
        "Ġse",
        "c"
      ],
      [
        "Ġgl",
        "or"
      ],
      [
        "Ch",
        "or"
      ],
      [
        "i",
        "ver"
      ],
      [
        "s",
        "s"
      ],
      [
        "Ġ",
        "K"
      ],
      [
        "Ġ",
        "20"
      ],
      [
        "Ġm",
        "uch"
      ],
      [
        "is",
        "s"
      ],
      [
        "Ġf",
        "ound"
      ],
      [
        "Ġl",
        "ife"
      ],
      [
        "it",
        "t"
      ],
      [
        "Ġg",
        "u"
      ],
      [
        "ri",
        "ght"
      ],
      [
        "ri",
        "end"
      ],
      [
        "Ġu",
        "nder"
      ],
      [
        "Ġre",
        "m"
      ],
      [
        "Wh",
        "en"
      ],
      [
        "ain",
        "s"
      ],
      [
        "Ġcon",
        "t"
      ],
      [
        "O",
        "n"
      ],
      [
        "i",
        "er"
      ],
      [
        "er",
        "d"
      ],
      [
        "Ġp",
        "ower"
      ],
      [
        "an",
        "c"
      ],
      [
        "Ġin",
        "to"
      ],
      [
        "ed",
        "s"
      ],
      [
        "ĠI",
        "n"
      ],
      [
        "Ġre",
        "p"
      ],
      [
        "ĠĠĠĠĠĠĠĠĠĠĠĠĠĠĠĠĠĠĠĠĠĠĠĠ",
        "ĠĠ"
      ],
      [
        "ĠĠĠĠĠĠĠĠĠĠĠĠĠĠĠĠĠĠĠĠ",
        "ĠĠĠ"
      ],
      [
        "a",
        "le"
      ],
      [
        "c",
        "ri"
      ],
      [
        "e",
        "c"
      ],
      [
        "r",
        "on"
      ],
      [
        "y",
        "m"
      ],
      [
        "Ġ",
        "ea"
      ],
      [
        "Ġ",
        "To"
      ],
      [
        "Ġs",
        "ing"
      ],
      [
        "er",
        "n"
      ],
      [
        "Ġwith",
        "out"
      ],
      [
        "Ġre",
        "s"
      ],
      [
        "Ġthou",
        "gh"
      ],
      [
        "Ġlo",
        "ve"
      ],
      [
        "Ġj",
        "ust"
      ],
      [
        "au",
        "ght"
      ],
      [
        "Ġhon",
        "our"
      ],
      [
        "a",
        "v"
      ],
      [
        "f",
        "ter"
      ],
      [
        "o",
        "ok"
      ],
      [
        "Ġb",
        "oth"
      ],
      [
        "Ġp",
        "o"
      ],
      [
        "Ġp",
        "res"
      ],
      [
        "Ġre",
        "ad"
      ],
      [
        "ĠP",
        "h"
      ],
      [
        "ĠA",
        "r"
      ],
      [
        "ĠĠĠĠĠĠĠĠĠĠĠĠĠĠĠĠĠĠĠĠĠĠĠĠ",
        "ĠĠĠ"
      ],
      [
        "Ġsw",
        "eet"
      ],
      [
        "Ġ",
        "&"
      ],
      [
        "Ġf",
        "e"
      ],
      [
        "Ġl",
        "e"
      ],
      [
        "Ġn",
        "or"
      ],
      [
        "Th",
        "is"
      ],
      [
        "Ġre",
        "st"
      ],
      [
        "our",
        "s"
      ],
      [
        "ĠB",
        "ro"
      ],
      [
        "r",
        "is"
      ],
      [
        "Ġ",
        "2"
      ],
      [
        "Ġf",
        "ind"
      ],
      [
        "Ġd",
        "eath"
      ],
      [
        "Ġd",
        "own"
      ],
      [
        "Ġg",
        "ive"
      ],
      [
        "Ġwh",
        "om"
      ],
      [
        "Ġsp",
        "ell"
      ],
      [
        "ĠĠĠĠĠĠĠĠĠĠĠĠĠĠĠĠĠĠĠĠ",
        "ĠĠ"
      ],
      [
        "Ġcom",
        "m"
      ],
      [
        "c",
        "l"
      ],
      [
        "f",
        "e"
      ],
      [
        "i",
        "eld"
      ],
      [
        "p",
        "le"
      ],
      [
        "Ġ",
        "ed"
      ],
      [
        "in",
        "es"
      ],
      [
        "Ġh",
        "o"
      ],
      [
        "Ġm",
        "is"
      ],
      [
        "Ġb",
        "ring"
      ],
      [
        "Ġt",
        "ime"
      ],
      [
        "ut",
        "e"
      ],
      [
        "rou",
        "ght"
      ],
      [
        "Ġk",
        "eep"
      ],
      [
        "Ġcom",
        "e"
      ],
      [
        "row",
        "n"
      ],
      [
        "H",
        "E"
      ],
      [
        "H",
        "ow"
      ],
      [
        "M",
        "an"
      ],
      [
        "a",
        "id"
      ],
      [
        "b",
        "e"
      ],
      [
        "i",
        "a"
      ],
      [
        "i",
        "al"
      ],
      [
        "o",
        "ice"
      ],
      [
        "r",
        "ong"
      ],
      [
        "Ġm",
        "ade"
      ],
      [
        "Ġb",
        "et"
      ],
      [
        "ar",
        "m"
      ],
      [
        "ra",
        "g"
      ],
      [
        "ĠS",
        "on"
      ],
      [
        "ĠS",
        "am"
      ],
      [
        "ain",
        "t"
      ],
      [
        "Ġat",
        "t"
      ],
      [
        "Ġne",
        "w"
      ],
      [
        "op",
        "e"
      ],
      [
        "ran",
        "s"
      ],
      [
        "B",
        "e"
      ],
      [
        "w",
        "h"
      ],
      [
        "Ġ",
        "round"
      ],
      [
        "Ġm",
        "ind"
      ],
      [
        "Ġf",
        "ar"
      ],
      [
        "Ġb",
        "ro"
      ],
      [
        "Ġc",
        "ould"
      ],
      [
        "Ġg",
        "o"
      ],
      [
        "ad",
        "y"
      ],
      [
        "Ġas",
        "s"
      ],
      [
        "ct",
        "ion"
      ],
      [
        "Ġso",
        "on"
      ],
      [
        "ĠF",
        "a"
      ],
      [
        "Ġli",
        "ve"
      ],
      [
        "ĠSam",
        "son"
      ],
      [
        "I",
        "f"
      ],
      [
        "u",
        "se"
      ],
      [
        "in",
        "t"
      ],
      [
        "Ġs",
        "in"
      ],
      [
        "ou",
        "gh"
      ],
      [
        "Ġp",
        "art"
      ],
      [
        "Ġp",
        "eace"
      ],
      [
        "Ġn",
        "ame"
      ],
      [
        "Th",
        "y"
      ],
      [
        "ra",
        "y"
      ],
      [
        "ĠS",
        "he"
      ],
      [
        "Ġre",
        "t"
      ],
      [
        "em",
        "pt"
      ],
      [
        "Ġpl",
        "ace"
      ],
      [
        "sel",
        "f"
      ],
      [
        "Ġword",
        "s"
      ],
      [
        "S",
        "h"
      ],
      [
        "b",
        "s"
      ],
      [
        "f",
        "er"
      ],
      [
        "Ġ",
        "4"
      ],
      [
        "in",
        "s"
      ],
      [
        "Ġm",
        "ake"
      ],
      [
        "Ġf",
        "ull"
      ],
      [
        "Ġf",
        "ree"
      ],
      [
        "Ġt",
        "ra"
      ],
      [
        "Ġd",
        "iv"
      ],
      [
        "Ġp",
        "ur"
      ],
      [
        "Ġp",
        "ass"
      ],
      [
        "Ġto",
        "o"
      ],
      [
        "Ġg",
        "od"
      ],
      [
        "ĠS",
        "p"
      ],
      [
        "al",
        "t"
      ],
      [
        "ĠB",
        "ut"
      ],
      [
        "Ġj",
        "oy"
      ],
      [
        "Ġman",
        "y"
      ],
      [
        "Ġim",
        "p"
      ],
      [
        "Ġea",
        "ch"
      ],
      [
        "S",
        "p"
      ],
      [
        "e",
        "f"
      ],
      [
        "n",
        "ing"
      ],
      [
        "o",
        "c"
      ],
      [
        "Ġ",
        "ent"
      ],
      [
        "Ġs",
        "ay"
      ],
      [
        "Ġs",
        "ight"
      ],
      [
        "at",
        "ed"
      ],
      [
        "ea",
        "se"
      ],
      [
        "Ġl",
        "ow"
      ],
      [
        "ĠI",
        "s"
      ],
      [
        "et",
        "s"
      ],
      [
        "el",
        "s"
      ],
      [
        "Ġbe",
        "en"
      ],
      [
        "Ġon",
        "ly"
      ],
      [
        "ĠA",
        "m"
      ],
      [
        "ph",
        "erd"
      ],
      [
        "Ġear",
        "th"
      ],
      [
        "Ġri",
        "ght"
      ],
      [
        "ĠPh",
        "il"
      ],
      [
        "ĠShe",
        "pherd"
      ],
      [
        "A",
        "t"
      ],
      [
        "Q",
        "u"
      ],
      [
        "U",
        "n"
      ],
      [
        "g",
        "g"
      ],
      [
        "j",
        "ect"
      ],
      [
        "l",
        "ed"
      ],
      [
        "u",
        "res"
      ],
      [
        "Ġ",
        "r"
      ],
      [
        "th",
        "e"
      ],
      [
        "Ġa",
        "ff"
      ],
      [
        "in",
        "k"
      ],
      [
        "Ġf",
        "ear"
      ],
      [
        "en",
        "g"
      ],
      [
        "ow",
        "s"
      ],
      [
        "ar",
        "s"
      ],
      [
        "ith",
        "er"
      ],
      [
        "le",
        "m"
      ],
      [
        "ĠS",
        "h"
      ],
      [
        "ĠS",
        "un"
      ],
      [
        "Ġhear",
        "d"
      ],
      [
        "Ġever",
        "y"
      ],
      [
        "Ġagain",
        "st"
      ],
      [
        "cri",
        "pt"
      ],
      [
        "6",
        "0"
      ],
      [
        "7",
        "3"
      ],
      [
        "N",
        "or"
      ],
      [
        "f",
        "or"
      ],
      [
        "o",
        "ther"
      ],
      [
        "Ġ",
        "30"
      ],
      [
        "Ġ",
        "40"
      ],
      [
        "th",
        "ing"
      ],
      [
        "Ġa",
        "cc"
      ],
      [
        "Ġs",
        "il"
      ],
      [
        "Ġw",
        "a"
      ],
      [
        "Ġw",
        "ind"
      ],
      [
        "Ġh",
        "u"
      ],
      [
        "Ġm",
        "ortal"
      ],
      [
        "Ġf",
        "riend"
      ],
      [
        "Ġb",
        "right"
      ],
      [
        "at",
        "ch"
      ],
      [
        "Ġd",
        "ou"
      ],
      [
        "Ġl",
        "ess"
      ],
      [
        "Ġp",
        "e"
      ],
      [
        "Ġp",
        "rin"
      ],
      [
        "Ġin",
        "t"
      ],
      [
        "ir",
        "th"
      ],
      [
        "Ġwh",
        "ose"
      ],
      [
        "Ġre",
        "v"
      ],
      [
        "Ġbe",
        "h"
      ],
      [
        "im",
        "es"
      ],
      [
        "if",
        "t"
      ],
      [
        "os",
        "s"
      ],
      [
        "Ġser",
        "v"
      ],
      [
        "Ġed",
        "ition"
      ],
      [
        "N",
        "o"
      ],
      [
        "X",
        "X"
      ],
      [
        "i",
        "ly"
      ],
      [
        "n",
        "es"
      ],
      [
        "Ġ",
        "5"
      ],
      [
        "Ġ",
        "8"
      ],
      [
        "Ġ",
        "9"
      ],
      [
        "Ġ",
        "Of"
      ],
      [
        "Ġa",
        "ge"
      ],
      [
        "Ġs",
        "oul"
      ],
      [
        "Ġh",
        "um"
      ],
      [
        "Ġh",
        "eav"
      ],
      [
        "ou",
        "n"
      ],
      [
        "Ġf",
        "al"
      ],
      [
        "Ġd",
        "i"
      ],
      [
        "Ġd",
        "eep"
      ],
      [
        "Ġc",
        "ount"
      ],
      [
        "Ġp",
        "ri"
      ],
      [
        "ĠP",
        "o"
      ],
      [
        "nt",
        "o"
      ],
      [
        "Ġlo",
        "ok"
      ],
      [
        "ĠW",
        "ood"
      ],
      [
        "ĠTh",
        "y"
      ],
      [
        "Ġver",
        "t"
      ],
      [
        "Ġpra",
        "ise"
      ],
      [
        "Ġey",
        "es"
      ],
      [
        "lem",
        "n"
      ],
      [
        "S",
        "A"
      ],
      [
        "T",
        "ill"
      ],
      [
        "c",
        "es"
      ],
      [
        "i",
        "ke"
      ],
      [
        "m",
        "e"
[...]
